. 55299
a 49914
un 34951
une 20635
in 14984
de 14095
the 10970
en 9943
, 8763
on 8224
d&apos; 8142
dans 8059
sur 7957
homme 7892
man 7824
is 7602
et 7496
des 7477
and 7393
avec 7177
of 6872
with 6179
la 5670
à 5328
femme 4454
l&apos; 4286
deux 4068
woman 3977
two 3877
le 3819
are 3743
est 3280
to 3131
people 3122
an 2952
at 2949
wearing 2623
young 2280
white 2223
shirt 2129
se 2073
black 2003
debout 1994
his 1969
personnes 1951
while 1947
sont 1941
blue 1875
jeune 1820
tandis 1796
devant 1793
hommes 1783
men 1779
les 1776
fille 1759
red 1749
sitting 1743
girl 1742
du 1706
boy 1695
dog 1683
groupe 1682
garçon 1675
assis 1667
chien 1646
standing 1615
playing 1584
au 1561
group 1552
son 1545
rue 1462
rouge 1452
street 1452
t-shirt 1433
down 1393
walking 1378
qu&apos; 1377
noir 1359
portant 1351
blanc 1316
pour 1300
front 1299
train 1278
her 1263
holding 1237
gens 1127
air 1099
trois 1097
one 1096
water 1065
eau 1064
three 1056
by 1055
bleu 1051
femmes 1039
fait 1030
women 988
enfant 986
enfants 978
table 972
que 952
sa 951
qui 949
orange 941
up 941
green 928
tient 918
little 916
côté 909
for 908
as 898
child 894
looking 888
autre 874
regarde 874
outside 871
petit 864
large 859
through 813
joue 808
près 806
photo 796
s&apos; 788
yellow 781
personne 769
children 768
brown 766
tenant 760
person 753
vêtu 744
jouant 740
ball 733
from 728
hat 728
par 726
their 725
into 711
&quot; 700
il 694
small 671
chemise 664
next 664
jaune 663
other 660
jeunes 656
vélo 645
dressed 636
out 634
football 628
some 624
jouent 619
petite 618
lors 612
over 611
regardant 607
building 603
dehors 600
ses 596
bâtiment 590
marche 585
riding 584
running 582
blanche 580
lunettes 579
near 571
couple 569
stand 567
jacket 566
veste 563
another 562
around 562
assise 551
trottoir 549
court 542
faisant 540
regardent 539
saute 539
cheveux 536
field 536
tout 535
beach 534
long 534
sidewalk 534
foule 528
crowd 521
marchant 513
vert 511
derrière 510
plage 507
stands 503
bleue 499
pink 494
jumping 493
sits 492
porte 490
behind 489
face 476
girls 476
grass 468
neige 465
main 463
background 460
snow 459
ballon 457
aux 456
bike 449
quelque 449
city 448
plusieurs 448
rose 445
&apos;s 444
arrière-plan 440
chose 437
grand 435
autres 431
filles 429
player 429
y 427
park 426
brun 425
top 424
looks 423
asian 421
tenue 421
herbe 419
vers 418
wall 418
four 416
marchent 412
quatre 408
chiens 407
dogs 407
robe 406
tennis 405
baseball 404
elle 404
several 404
that 404
chapeau 403
older 402
course 395
off 394
dress 390
camera 387
noire 385
ville 385
mur 384
costume 382
talking 382
it 381
restaurant 381
lady 380
soccer 380
something 380
sous 379
autour 378
leurs 376
soleil 371
walks 371
along 370
guitar 370
skateboard 370
balle 367
food 367
boys 365
hair 365
play 365
working 365
font 364
short 363
together 361
guitare 359
garçons 355
smiling 353
parc 351
re@@ 347
assises 346
blond 346
sac 346
bois 345
car 344
gray 343
game 341
picture 340
has 339
shorts 335
ensemble 334
marron 332
plays 331
scène 331
terrain 330
terre 328
hand 327
holds 322
jean 319
joueur 315
road 315
bench 314
gars 314
him 312
glasses 311
pants 311
banc 310
maillot 310
match 310
vêtue 309
old 308
side 308
sit 305
asiatique 304
stage 303
walk 303
carrying 300
baby 299
haut 293
lui 293
rock 293
tête 293
pantalon 290
them 290
dos 288
bicycle 287
voiture 286
bus 285
gris 285
pose 283
race 282
jeans 280
pool 280
casque 279
male 279
tree 279
très 279
taking 275
verte 275
casquette 272
each 272
bord 271
construction 271
route 269
bébé 267
doing 267
cheval 262
gros 262
across 261
dirt 261
head 261
lit 261
watching 261
guy 260
there 259
vêtements 259
area 258
boat 258
day 256
back 253
er 253
suit 253
bateau 252
extérieur 252
jumps 250
grande 248
hands 248
s@@ 247
sautant 247
ground 246
téléphone 246
female 245
pendant 245
room 245
rouges 245
magasin 244
piscine 244
a@@ 242
sable 242
performing 241
sol 241
-@@ 240
champ 240
its 240
leur 240
nourriture 240
in@@ 239
prend 239
s 238
who 237
eating 236
é 235
courant 234
milieu 234
being 233
coat 233
or 232
striped 232
using 229
eux 228
au-dessus 227
band 227
es 227
watch 226
ed 225
kids 225
store 225
under 224
many 223
arbre 222
dé@@ 222
horse 222
mouth 221
purple 221
faire 220
he 220
microphone 220
manteau 219
sign 219
basketball 218
be 218
ce 218
parle 218
this 216
passe 215
sand 213
noirs 212
runs 212
bras 211
reading 210
machine 209
players 209
hockey 208
journée 208
look 208
public 208
sunglasses 208
blancs 207
contre 205
courent 205
visage 204
clothing 203
vieil 202
dark 200
mountain 200
ant 199
ocean 199
toy 199
âgé 199
e@@ 198
ée 198
during 197
workers 197
blonde 195
équipe 195
middle 194
souriant 194
watches 194
climbing 193
portable 192
uniform 192
micro 191
past 191
work 191
elderly 190
salle 190
sourit 189
against 187
helmet 187
team 187
océan 185
dancing 184
mains 184
en@@ 183
window 183
rides 181
montagne 180
chemin 179
costumes 179
frisbee 179
chair 178
cinq 178
par-dessus 178
posing 178
they 178
about 177
arbres 176
line 176
piste 176
covered 175
o@@ 175
moto 174
outdoor 174
trees 174
entre 173
five 173
fleurs 173
having 173
waiting 173
wooden 173
all 172
bar 171
ent 171
cuisine 170
ice 170
g@@ 169
instruments 169
jeu 169
shirts 169
statue 169
swimming 169
tente 169
very 169
âgée 169
ées 169
bag 168
getting 168
t@@ 168
travaille 168
floor 166
marché 166
plein 166
bain 165
trying 165
colorful 163
ers 163
travers 163
an@@ 162
d@@ 162
où 161
és 161
beaucoup 160
busy 160
i@@ 160
après 159
fence 159
parlant 159
singing 159
jump 158
tenues 158
ils 157
light 157
plan 157
b@@ 156
six 156
te 156
truck 156
p@@ 155
quelqu&apos; 155
vêtus 155
book 154
cart 154
u@@ 154
arrière 153
di@@ 153
jouer 153
nu 153
attraper 152
con@@ 152
hill 152
market 152
appareil 151
ca@@ 151
tan 151
inside 150
joueurs 150
laying 150
nuit 150
ou 150
hats 149
high 149
ing 149
rayé 149
travaillant 149
jouet 148
bright 147
c@@ 147
ouvriers 147
tiennent 147
camion 146
ride 146
t 146
ti@@ 146
big 145
cap 145
kitchen 145
others 145
planche 145
cellphone 144
concert 144
débardeur 144
grassy 144
habillé 144
path 144
ri@@ 144
ts 144
al@@ 143
basket 143
police 143
someone 143
structure 143
beige 142
livre 142
making 142
rampe 142
w@@ 142
clothes 141
d 141
instrument 141
la@@ 141
li@@ 141
night 141
body 140
gueule 140
motorcycle 140
pièce 140
polo 140
ra@@ 140
takes 140
travaillent 140
dessus 139
intérieur 139
rivière 139
umbrella 139
blanches 138
bleus 138
board 138
full 138
k@@ 138
outfit 138
towards 138
violet 138
brick 137
enjoying 137
m@@ 137
petits 137
track 137
adultes 136
américain 136
cycliste 136
musique 136
rocher 136
she 136
swing 136
metal 135
po@@ 135
semble 135
cigarette 134
river 134
sweat 134
fenêtre 133
figure 133
i 133
paper 133
piece 133
quelques 133
ready 133
shop 133
bas 132
pierre 132
torse 132
lac 131
place 131
tank 131
chaise 130
danse 130
maison 130
arts 129
pont 129
ski 129
spectateurs 129
bowling 128
open 128
ro@@ 128
v@@ 128
être 128
f@@ 127
plus 127
shopping 127
sweater 127
utilise 127
colored 126
worker 126
é@@ 126
chante 125
clôture 125
corde 125
marches 125
trick 125
volleyball 125
above 124
dance 124
painting 124
pelouse 124
bonnet 123
house 123
lake 123
objectif 123
zone 123
adults 122
going 122
pull 122
station 122
asiatiques 121
elles 121
gilet 121
music 121
point 121
foot 120
hard 120
objet 120
onto 120
run 120
snowy 120
vest 120
lo@@ 119
lot 119
phone 119
stone 119
surrounded 119
wave 119
fête 118
oranges 118
prenant 118
stick 118
tent 118
uniforms 118
crowded 117
outdoors 117
pole 117
subway 117
t-shirts 117
ar@@ 116
balançoire 116
glace 116
tire 116
backpack 115
beside 115
e 115
gear 115
posent 115
set 115
smiles 115
c 114
kid 114
manger 114
métro 114
parking 114
photos 114
vague 114
american 113
art 113
cowboy 113
ds 113
montre 113
ons 113
ta@@ 113
african 112
allongé 112
ba@@ 112
bikini 112
chariot 112
conversation 112
drinking 112
ins 112
mar@@ 112
sacs 112
escalade 111
ex@@ 111
family 111
regarder 111
trouve 111
bridge 110
catch 110
ches 110
couleur 110
flowers 110
fruits 110
n@@ 110
o 110
pieds 110
ré@@ 110
arms 109
bâton 109
event 109
fire 109
forêt 109
parlent 109
toddler 109
briques 108
gathered 108
guys 108
chaussures 107
famille 107
hanging 107
like 107
2 106
away 106
ordinateur 106
y@@ 106
beautiful 105
colline 105
passent 105
prendre 105
preparing 105
de@@ 104
graffiti 104
parade 104
pe@@ 104
quai 104
st@@ 104
escalier 103
leaning 103
longs 103
object 103
par@@ 103
sleeping 103
steps 103
after 102
carreaux 102
fishing 102
jaunes 102
sh@@ 102
verre 102
vieux 102
casques 101
fontaine 101
peint 101
pente 101
plaid 101
r@@ 101
avant 100
canapé 100
fountain 100
rope 100
sport 100
combinaison 99
enneigée 99
shirtless 99
stairs 99
rocks 98
take 98
adult 97
arm 97
bruns 97
café 97
er@@ 97
ly 97
noires 97
bu@@ 96
l 96
parapluie 96
parmi 96
prépare 96
shoes 96
tous 96
animal 95
at@@ 95
base 95
graffitis 95
marathon 95
me 95
alors 94
der 94
ding 94
dont 94
ensoleillée 94
glass 94
ont 94
selling 94
sorte 94
sunny 94
does 93
forest 93
papier 93
saut 93
si@@ 93
sort 93
travail 93
un@@ 93
utilisant 93
vi@@ 93
vif 93
wood 93
attendant 92
bleues 92
cette 92
chairs 92
pied 92
racing 92
setting 92
slide 92
gilets 91
loin 91
mo@@ 91
per@@ 91
sommet 91
tall 91
view 91
ation 90
both 90
corner 90
dansent 90
flag 90
m 90
ouvrier 90
putting 90
pêche 90
surf 90
tables 90
way 90
attendent 89
barbe 89
bouche 89
descend 89
eur 89
feu 89
king 89
met 89
p 89
posant 89
pushing 89
robes 89
se@@ 89
ter 89
throwing 89
adulte 88
attend 88
between 88
bou@@ 88
drink 88
have 88
ladies 88
nombreux 88
numéro 88
poses 88
bar@@ 87
béton 87
ces 87
computer 87
cyclistes 87
frapper 87
genoux 87
laughing 87
ling 87
ment 87
new 87
panneau 87
skate 87
vêtues 87
am@@ 86
bureau 86
clown 86
equipment 86
fish 86
golf 86
hiver 86
k 86
nus 86
party 86
passant 86
plastique 86
tant 86
tas 86
tes 86
ting 86
toit 86
airs 85
bed 85
bikes 85
couch 85
cour 85
pictures 85
pleine 85
portent 85
proximité 85
père 85
uniforme 85
vue 85
be@@ 84
cu@@ 84
plastic 84
playground 84
ramp 84
scooter 84
sun 84
sweatshirt 84
yard 84
car@@ 83
ciel 83
distance 83
reads 83
trail 83
which 83
woods 83
beard 82
co@@ 82
concrete 82
dansant 82
dock 82
essayant 82
ine 82
journal 82
ligne 82
lisant 82
moyen 82
mère 82
yeux 82
ac@@ 81
al 81
cor@@ 81
cross 81
drapeau 81
feuilles 81
jupe 81
midair 81
monte 81
pancarte 81
rochers 81
spectacle 81
winter 81
attire 80
just 80
l@@ 80
montagnes 80
number 80
pile 80
roller 80
su@@ 80
traverse 80
uniformes 80
uses 80
âge 80
événement 80
but 79
grill 79
maillots 79
sautent 79
seated 79
skirt 79
sweat-shirt 79
chaises 78
clair 78
défilé 78
fréquentée 78
lance 78
le@@ 78
ma@@ 78
microscope 78
métallique 78
pa@@ 78
qu@@ 78
sécurité 78
3 77
bags 77
beer 77
bo@@ 77
chef 77
com@@ 77
foncés 77
get 77
grosse 77
mangeant 77
nombreuses 77
promène 77
school 77
toward 77
tunnel 77
what 77
where 77
age 76
coin 76
cooking 76
el 76
h@@ 76
rider 76
sauter 76
sourient 76
tapis 76
th@@ 76
tra@@ 76
vélos 76
works 76
ad@@ 75
bière 75
blond-hair 75
chapeaux 75
classe 75
cutting 75
dort 75
fauteuil 75
filled 75
motocross 75
or@@ 75
pousse 75
prennent 75
rempli 75
repas 75
rodéo 75
us 75
vests 75
belle 74
buildings 74
ch@@ 74
cream 74
fruit 74
lancer 74
left 74
nombre 74
pre@@ 74
pulling 74
shore 74
skateboarder 74
snowboarder 74
surfer 74
comme 73
habillée 73
jeux 73
middle-aged 73
mother 73
net 73
ps 73
sculpture 73
sentier 73
voitures 73
écrit 73
étant 73
appears 72
box 72
brune 72
cliff 72
crossing 72
depuis 72
friends 72
noël 72
panier 72
show 72
sky 72
toboggan 72
ve 72
bearded 71
blonds 71
cars 71
compétition 71
cou@@ 71
edge 71
em@@ 71
few 71
légumes 71
mountains 71
pla@@ 71
pro@@ 71
sans 71
showing 71
smoking 71
spectators 71
ble 70
ci@@ 70
ement 70
gauche 70
glisse 70
horses 70
jersey 70
tablier 70
time 70
équilibre 70
donne 69
dresses 69
entouré 69
gants 69
ines 69
lined 69
make 69
ne 69
nearby 69
performs 69
right 69
scarf 69
trampoline 69
verts 69
z@@ 69
aide 68
apron 68
barbu 68
buvant 68
carries 68
chantant 68
coffee 68
coup 68
dame 68
driving 68
g 68
it@@ 68
perform 68
sa@@ 68
seau 68
tri@@ 68
ballons 67
couleurs 67
cours 67
ges 67
is@@ 67
leaves 67
paysage 67
pluie 67
rain 67
skateur 67
vieille 67
apprête 66
battent 66
bi@@ 66
boots 66
bottes 66
bull 66
colorés 66
drapeaux 66
el@@ 66
flower 66
gentleman 66
gu@@ 66
kayak 66
martial 66
morceau 66
painted 66
parked 66
pilote 66
r 66
roulant 66
shot 66
ss@@ 66
students 66
tu@@ 66
various 66
vendor 66
amis 65
artiste 65
barbecue 65
cup 65
côte 65
doigt 65
frappe 65
goggles 65
grise 65
habillés 65
ks 65
longue 65
rocheuse 65
smile 65
sports 65
temps 65
vehicle 65
véhicule 65
younger 65
âgées 65
bien 64
bottle 64
cake 64
cement 64
do@@ 64
door 64
drums 64
falaise 64
flying 64
home 64
jardin 64
no 64
poteau 64
produits 64
talks 64
to@@ 64
traversent 64
vertes 64
; 63
bathing 63
can 63
eyes 63
flags 63
gr@@ 63
hit 63
jogging 63
kicking 63
lying 63
no@@ 63
pi@@ 63
ques 63
ssant 63
st 63
suits 63
tour 63
u 63
bouteille 62
bâtiments 62
coming 62
jackets 62
newspaper 62
on@@ 62
paint 62
petites 62
prepares 62
préparant 62
rassemblent 62
rocky 62
rodeo 62
safety 62
snowboardeur 62
so@@ 62
sse 62
stop 62
surface 62
swinging 62
waves 62
avoir 61
biker 61
bucket 61
different 61
end 61
es@@ 61
foncé 61
gather 61
gloves 61
indian 61
led 61
mange 61
martiaux 61
peinture 61
practicing 61
sale 61
surfeur 61
tie 61
&apos; 60
aire 60
blouse 60
bunch 60
caméra 60
cleaning 60
competition 60
courses 60
do 60
fils 60
ger 60
hold 60
ladder 60
listening 60
musiciens 60
même 60
nage 60
parler 60
policier 60
roof 60
roses 60
scene 60
vendeur 60
vitrine 60
blanket 59
chevaux 59
cow-boy 59
eurs 59
gets 59
hot 59
items 59
masque 59
ni@@ 59
om@@ 59
onlookers 59
pe 59
rail 59
ser@@ 59
skateboarding 59
snowboard 59
staring 59
type 59
ver@@ 59
wet 59
ap@@ 58
audience 58
balloon 58
bicycles 58
boule 58
bowl 58
br@@ 58
capuche 58
chantier 58
chi@@ 58
couverture 58
desk 58
empty 58
ens 58
festival 58
fi@@ 58
giving 58
go 58
ie 58
lawn 58
lire 58
mangent 58
meal 58
pas 58
railing 58
ayant 57
balance 57
drinks 57
grands 57
gym 57
leaps 57
longues 57
military 57
pavée 57
penche 57
peu 57
préparent 57
rayée 57
skier 57
skieur 57
softball 57
te@@ 57
traversant 57
adolescent 56
bird 56
collier 56
display 56
espace 56
ette 56
filet 56
gathering 56
hand@@ 56
ler 56
lieu 56
mer 56
ouverte 56
pointing 56
saxophone 56
skis 56
sliding 56
ste 56
use 56
vegetables 56
échelle 56
étendue 56
au@@ 55
before 55
bride 55
bulles 55
canne 55
chasing 55
class 55
competing 55
dis@@ 55
facing 55
feet 55
immeuble 55
manches 55
matériel 55
orchestre 55
pen@@ 55
premier 55
pu@@ 55
site 55
streets 55
tirant 55
vient 55
wedding 55
âgés 55
avion 54
descendant 54
différentes 54
helmets 54
huge 54
image 54
ker 54
lights 54
mask 54
me@@ 54
photographe 54
platform 54
pompiers 54
poussette 54
rivage 54
speaking 54
ster 54
vend 54
écran 54
allongée 53
base-ball 53
batterie 53
camouflage 53
cher 53
classroom 53
country 53
discutent 53
droite 53
et@@ 53
forme 53
ge@@ 53
gâteau 53
im@@ 53
obstacle 53
part 53
pass 53
pelle 53
piano 53
poisson 53
remplie 53
roule 53
salon 53
sc@@ 53
silver 53
surfing 53
teams 53
ted 53
tries 53
vagues 53
vole 53
w 53
été 53
alley 52
break 52
climbs 52
coupe 52
couvert 52
father 52
ir@@ 52
performance 52
podium 52
purse 52
rit 52
seen 52
sings 52
sombre 52
surfboard 52
traditional 52
vendant 52
wait 52
waits 52
équipes 52
b 51
boissons 51
counter 51
direction 51
essaie 51
fighting 51
fl@@ 51
gold 51
il@@ 51
ire 51
kissing 51
man@@ 51
marcher 51
mou@@ 51
musicians 51
onn@@ 51
pause 51
rugby 51
screen 51
sou@@ 51
té 51
ue 51
urban 51
violette 51
ai@@ 50
business 50
centre 50
coucher 50
cra@@ 50
females 50
hoop 50
laisse 50
n 50
recouverte 50
ru@@ 50
same 50
skating 50
stroller 50
taureau 50
ter@@ 50
terrasse 50
traverser 50
ur@@ 50
violon 50
animée 49
bat 49
boue 49
bri@@ 49
cafe 49
cascade 49
ch 49
che 49
ck 49
clients 49
col@@ 49
comptoir 49
happy 49
hole 49
ill@@ 49
ille 49
inter@@ 49
kneeling 49
lap 49
local 49
moment 49
musical 49
pin@@ 49
por@@ 49
pot 49
ring 49
runner 49
shoulder 49
sunset 49
tableau 49
throw 49
walkway 49
writing 49
york 49
4 48
affiche 48
allée 48
ants 48
argent 48
attempting 48
bald 48
blowing 48
boisson 48
bra@@ 48
christmas 48
club 48
e-@@ 48
ent@@ 48
escalator 48
euse 48
jo@@ 48
mariage 48
montrant 48
oiseau 48
ping 48
policiers 48
signs 48
sing 48
style 48
talk 48
violin 48
vo@@ 48
waving 48
attrape 47
bl@@ 47
chauve 47
ciment 47
coloré 47
cordes 47
cravate 47
dents 47
ge 47
ke 47
life 47
made 47
mariée 47
mi@@ 47
observe 47
outfits 47
overlooking 47
peluche 47
pri@@ 47
ssent 47
voie 47
écharpe 47
étudiants 47
adolescents 46
ante 46
artist 46
ate 46
blond-haired 46
bubbles 46
can@@ 46
cre@@ 46
fond 46
j@@ 46
joueuse 46
mirror 46
objets 46
officer 46
promenant 46
pé@@ 46
randonnée 46
rassemblées 46
re 46
says 46
tasse 46
tre@@ 46
van 46
5 45
action 45
balloons 45
brunette 45
chinese 45
close 45
coureur 45
coureurs 45
cuir 45
ettes 45
fixing 45
fla@@ 45
foulard 45
giant 45
leans 45
min@@ 45
monsieur 45
per 45
recouvert 45
rousse 45
square 45
surfe 45
ves 45
électrique 45
ag@@ 44
alone 44
ating 44
c&apos; 44
che@@ 44
collar 44
conduit 44
dancers 44
faces 44
foreground 44
gar@@ 44
helping 44
hi@@ 44
hors 44
hula 44
ic@@ 44
jouets 44
leather 44
leg 44
lève 44
mat@@ 44
miroir 44
mud 44
métal 44
over@@ 44
passage 44
plate 44
sp@@ 44
swim 44
teenage 44
ten@@ 44
trou 44
umbrellas 44
va 44
wheel 44
! 43
ans 43
asleep 43
av@@ 43
bles 43
bmx 43
brightly 43
chat 43
chemisier 43
cro@@ 43
ded 43
du@@ 43
electric 43
enjoy 43
garage 43
headphones 43
juste 43
legs 43
lots 43
ls 43
magazine 43
meat 43
membres 43
motard 43
ombre 43
oriental 43
paroi 43
pom-pom 43
sticks 43
vestes 43
volley 43
ère 43
among 42
arbitre 42
ated 42
ban@@ 42
cam@@ 42
char@@ 42
discutant 42
diving 42
dra@@ 42
falling 42
for@@ 42
gs 42
jette 42
makes 42
mé@@ 42
office 42
officers 42
ou@@ 42
passing 42
pierres 42
pou@@ 42
promenade 42
sandals 42
sk@@ 42
snow@@ 42
stade 42
stadium 42
suspendu 42
swings 42
toys 42
tube 42
um@@ 42
wagon 42
washing 42
we@@ 42
wears 42
écouteurs 42
balls 41
barefoot 41
bro@@ 41
church 41
courts 41
dark-haired 41
dirty 41
doorway 41
ea@@ 41
friend 41
goal 41
golden 41
heads 41
hiking 41
ite 41
jusqu&apos; 41
manège 41
multicolored 41
ous 41
pan@@ 41
photographer 41
position 41
prairie 41
row 41
sandales 41
sh 41
singer 41
skiing 41
taille 41
ture 41
video 41
ères 41
accordion 40
boit 40
canoe 40
drawing 40
eat 40
endroit 40
examine 40
fans 40
flip 40
fume 40
garden 40
habillées 40
ier 40
laptop 40
leash 40
males 40
ne@@ 40
op@@ 40
pays 40
picking 40
pond 40
poussant 40
profonde 40
protection 40
reaching 40
ruelle 40
sses 40
tape 40
throws 40
traffic 40
ve@@ 40
viande 40
vive 40
église 40
épaules 40
accordéon 39
bal@@ 39
below 39
ber@@ 39
courir 39
daughter 39
digging 39
dreadlocks 39
drum 39
désert 39
eaux 39
effectuant 39
figures 39
four@@ 39
gra@@ 39
jambe 39
jungle 39
kaki 39
lone 39
members 39
mes 39
mor@@ 39
move 39
plantes 39
quartier 39
relaxing 39
seul 39
shallow 39
souriante 39
well 39
( 38
ass@@ 38
atop 38
barrière 38
batte 38
bicyclist 38
bol 38
cat 38
catches 38
catching 38
cercle 38
ched 38
divers 38
fun 38
gi@@ 38
gives 38
go@@ 38
hugging 38
lea@@ 38
mouvement 38
moving 38
passes 38
pier 38
pl@@ 38
prepare 38
raquette 38
représentant 38
rer 38
rolling 38
rues 38
shovel 38
signe 38
surplombant 38
tor@@ 38
toutes 38
tuyau 38
ure 38
vent 38
vide 38
çant 38
è@@ 38
) 37
accroupi 37
bâtons 37
caisse 37
cet 37
chefs 37
chinois 37
climb 37
cricket 37
d-@@ 37
deep 37
desert 37
dit 37
donnant 37
dr@@ 37
entrée 37
ets 37
flies 37
illes 37
intersection 37
kick 37
lab 37
laboratoire 37
leaping 37
multicolore 37
participant 37
paved 37
points 37
remorque 37
resting 37
réunis 37
sandwich 37
sau@@ 37
sauvetage 37
shows 37
sled 37
sleeps 37
stunt 37
sweeping 37
tattoo 37
tronc 37
virage 37
back@@ 36
basket-ball 36
block 36
bon@@ 36
bor@@ 36
bordée 36
boîte 36
bur@@ 36
chant 36
cla@@ 36
coats 36
cold 36
colorée 36
combat 36
conversing 36
cur@@ 36
cérémonie 36
ders 36
dune 36
f 36
here 36
hoodie 36
hose 36
individuals 36
karate 36
karaté 36
ked 36
low 36
nageant 36
parachute 36
patio 36
photograph 36
plants 36
profitant 36
pulls 36
rangée 36
repose 36
roulent 36
sea@@ 36
sieste 36
sol@@ 36
splashing 36
sts 36
teeth 36
travailler 36
trunks 36
télescope 36
upside 36
vin 36
voir 36
wear 36
énorme 36
appar@@ 35
balustrade 35
batteur 35
cha@@ 35
closed 35
customers 35
dd@@ 35
effectue 35
els 35
ence 35
escaliers 35
ff@@ 35
formal 35
fumant 35
grimpe 35
gun 35
hall 35
held 35
how 35
ique 35
jet 35
ju@@ 35
lan@@ 35
mat 35
mon@@ 35
mural 35
pain 35
parents 35
piétons 35
pos@@ 35
pping 35
produit 35
promènent 35
riant 35
rou@@ 35
ruisseau 35
semblent 35
studio 35
sw@@ 35
telescope 35
these 35
town 35
underneath 35
vendre 35
wi@@ 35
wrestling 35
épaule 35
ale 34
als 34
ates 34
campagne 34
cane 34
carnival 34
cloth 34
cut 34
cyclist 34
dances 34
dinner 34
ely 34
endormi 34
entourée 34
fa@@ 34
gri@@ 34
gymnase 34
hauts 34
heureux 34
hiker 34
ic 34
ies 34
including 34
ir 34
ise 34
motifs 34
mu@@ 34
nettoie 34
nettoyant 34
nez 34
opposing 34
pes 34
project 34
quad 34
rient 34
roulettes 34
shoe 34
shoulders 34
soirée 34
soit 34
solitaire 34
t-@@ 34
themselves 34
tissu 34
touche 34
tout-petit 34
tro@@ 34
vis@@ 34
waters 34
without 34
afro-américain 33
agent 33
barre 33
baskets 33
bon 33
bondée 33
books 33
booth 33
brosse 33
cadre 33
chemises 33
circle 33
colorées 33
commercial 33
coté 33
crosswalk 33
crying 33
derby 33
descendent 33
doigts 33
driver 33
enneigé 33
escaladant 33
fight 33
gardien 33
hammer 33
infant 33
jour 33
land 33
lumière 33
lumières 33
makeup 33
matching 33
out@@ 33
paille 33
picnic 33
plane 33
pli@@ 33
poubelle 33
produce 33
projet 33
pré@@ 33
pulled 33
racket 33
roue 33
roux 33
runners 33
sept 33
ss 33
straw 33
sur@@ 33
taken 33
taxi 33
tricks 33
têtes 33
uns 33
va@@ 33
ved 33
voici 33
voit 33
wooded 33
écoute 33
assi@@ 32
athlete 32
attempts 32
balaie 32
bat@@ 32
bent 32
bicyclists 32
bout 32
center 32
certains 32
chent 32
cou 32
couper 32
cour@@ 32
covering 32
discussion 32
façade 32
fu@@ 32
gare 32
glissant 32
gonflable 32
gymnast 32
gymnaste 32
har@@ 32
he@@ 32
ité 32
jambes 32
jockey 32
lunch 32
mettant 32
militaire 32
montant 32
nose 32
ol@@ 32
opening 32
pantalons 32
parasol 32
participent 32
pat@@ 32
peau 32
peignant 32
penché 32
performer 32
pigeons 32
pipe 32
ple@@ 32
rest 32
sal@@ 32
sewing 32
soldats 32
stuffed 32
tenir 32
tir 32
trash 32
trou@@ 32
ul@@ 32
utilisent 32
ws 32
école 32
équipement 32
adverse 31
articles 31
balcon 31
balcony 31
bondé 31
boxes 31
cage 31
cal@@ 31
canoë 31
cape 31
cer 31
cer@@ 31
chases 31
cheerleaders 31
coupant 31
cow 31
cs 31
da@@ 31
enf@@ 31
ents 31
façon 31
fer 31
fr@@ 31
fresque 31
goes 31
gril 31
guitariste 31
haute 31
hautes 31
help 31
hikers 31
himself 31
hu@@ 31
jetée 31
lanceur 31
lançant 31
lays 31
lies 31
lift 31
manteaux 31
montent 31
pedestrians 31
pitcher 31
pompier 31
pushes 31
randonneur 31
randonneurs 31
sandy 31
slope 31
stes 31
sun@@ 31
tal@@ 31
teenagers 31
third 31
village 31
ying 31
écoutant 31
éloigne 31
ét@@ 31
animaux 30
appuie 30
ats 30
atta@@ 30
bagages 30
ce@@ 30
chan@@ 30
couché 30
dancer 30
deck 30
device 30
ear 30
gent 30
gentlemen 30
ging 30
head@@ 30
indoor 30
ja@@ 30
kind 30
linge 30
livres 30
log 30
marteau 30
monde 30
neck 30
not 30
oiseaux 30
outils 30
ouvre 30
parcours 30
partie 30
passer 30
plat 30
puts 30
queue 30
rassemblés 30
ruban 30
réparer 30
sculp@@ 30
seven 30
sourire 30
speaks 30
ssé 30
staircase 30
ste@@ 30
stra@@ 30
supermarché 30
tr@@ 30
traditionnels 30
travaux 30
turn 30
vache 30
étang 30
antes 29
ard 29
arrêt 29
athlète 29
blo@@ 29
blocks 29
boats 29
brandit 29
chantent 29
circulation 29
cli@@ 29
clo@@ 29
drives 29
enjoys 29
enne 29
evening 29
fallen 29
fe@@ 29
form@@ 29
grocery 29
ha@@ 29
heavy 29
ient 29
ig@@ 29
ined 29
langue 29
luge 29
machines 29
marching 29
ordures 29
overalls 29
pique-nique 29
plateau 29
poster 29
profite 29
round 29
s-@@ 29
see 29
shaking 29
sheet 29
swims 29
tatouage 29
tentent 29
toute 29
volant 29
wa@@ 29
wetsuit 29
affrontent 28
ami 28
ance 28
brown-haired 28
cal 28
carton 28
cavalier 28
cherche 28
chez 28
ching 28
ché 28
clear 28
cloudy 28
comment 28
dou@@ 28
dri@@ 28
eye 28
fast 28
file 28
fingers 28
foreign 28
frappant 28
garb 28
gate 28
geant 28
hangs 28
ho@@ 28
ile 28
ings 28
ist 28
kes 28
khaki 28
kicks 28
laundry 28
militaires 28
monticule 28
native 28
nice 28
os 28
parapluies 28
passerelle 28
ped 28
piéton 28
plan@@ 28
plant 28
porch 28
pouring 28
protective 28
prêt 28
publique 28
puddle 28
quant 28
red-haired 28
rollers 28
salto 28
sea 28
seule 28
shaving 28
ship 28
steep 28
stream 28
string 28
teenager 28
tion 28
tourne 28
tracks 28
troisième 28
urbain 28
voile 28
waterfall 28
wrapped 28
y-@@ 28
éclaboussures 28
able 27
airplane 27
ambulant 27
amusent 27
ards 27
arena 27
attached 27
backyard 27
balai 27
birds 27
bread 27
cadeau 27
chanteur 27
checking 27
chevauche 27
cking 27
colors 27
cri@@ 27
denim 27
dîner 27
end@@ 27
ery 27
fair 27
flo@@ 27
ful 27
ga@@ 27
id 27
kiss 27
ledge 27
live 27
luggage 27
ming 27
motos 27
moves 27
musicien 27
nets 27
opposite 27
oreilles 27
paddling 27
palm 27
patient 27
pattes 27
pavé 27
peut-être 27
plu@@ 27
pois 27
poles 27
put 27
reaches 27
red-hair 27
salopette 27
shooting 27
shoveling 27
soldat 27
soldiers 27
sta@@ 27
teur 27
tirer 27
tombe 27
touristes 27
try 27
unique 27
vidéo 27
vtt 27
x 27
1@@ 26
ales 26
alimentaire 26
amusant 26
ar 26
arène 26
ati@@ 26
atteindre 26
attentivement 26
balancing 26
boire 26
chambre 26
clean 26
cones 26
couloir 26
couverte 26
curb 26
danser 26
différents 26
directions 26
flaque 26
flight 26
foncée 26
goalie 26
gou@@ 26
gre@@ 26
humide 26
inflatable 26
joyeusement 26
jupes 26
laugh 26
lin@@ 26
mettre 26
mound 26
nature 26
ner 26
onne 26
ordinateurs 26
our 26
pavement 26
ph@@ 26
pped 26
pyjama 26
pé 26
rambarde 26
rayures 26
rest@@ 26
serviette 26
shed 26
sion 26
siège 26
skirts 26
sm@@ 26
soldier 26
squ@@ 26
sting 26
stri@@ 26
sé@@ 26
talons 26
tentant 26
tongue 26
tools 26
tops 26
tracteur 26
ty 26
ver 26
verres 26
wheelchair 26
win@@ 26
windows 26
wine 26
élèves 26
0@@ 25
2@@ 25
3@@ 25
apple 25
assiette 25
ations 25
bandana 25
bandanna 25
basse 25
bikers 25
bla@@ 25
boivent 25
bottom 25
branches 25
buying 25
camp 25
chaussettes 25
clavier 25
color 25
conduisant 25
container 25
courtyard 25
curly 25
cyclists 25
côtés 25
danseuse 25
descendre 25
dormant 25
déserte 25
eats 25
embrasse 25
employés 25
ente 25
exposition 25
fabric 25
fall 25
floating 25
floral 25
footballeurs 25
frame 25
fresh 25
gh@@ 25
gro@@ 25
h 25
happily 25
irs 25
juggling 25
keyboard 25
laughs 25
living 25
mais 25
marié 25
married 25
mobile 25
monument 25
motorcycles 25
ms 25
murs 25
musician 25
occu@@ 25
pancartes 25
pic@@ 25
plate-forme 25
portrait 25
pris 25
professional 25
prote@@ 25
radeau 25
raft 25
railroad 25
ram@@ 25
rassemblement 25
riders 25
santa 25
sco@@ 25
seat 25
sell 25
ser 25
shade 25
silhouette 25
skateboards 25
stati@@ 25
step 25
stool 25
student 25
surfant 25
swimsuit 25
tabouret 25
tend 25
tex@@ 25
tractor 25
transportant 25
tricycle 25
trouvent 25
vol@@ 25
walls 25
water@@ 25
éclairée 25
&amp; 24
acoustic 24
acoustique 24
ade 24
ait 24
ally 24
appear 24
apprêtant 24
ateur 24
attaché 24
attention 24
backwards 24
balade 24
balles 24
battant 24
bea@@ 24
boards 24
bouquet 24
box@@ 24
bubble 24
bucking 24
camionnette 24
camping 24
carriage 24
chaussée 24
cheering 24
chevauchant 24
choir 24
closeup 24
conférence 24
coudre 24
couples 24
cting 24
either 24
excit@@ 24
fermés 24
feuille 24
fin@@ 24
footballeur 24
fréquenté 24
gamin 24
garbage 24
goods 24
groom 24
guard 24
herbes 24
huit 24
hurdle 24
ity 24
jerseys 24
knee 24
lu@@ 24
magazines 24
marketplace 24
multiple 24
nap 24
natation 24
ob@@ 24
organ@@ 24
ours 24
pair 24
pajamas 24
pent 24
pit 24
pizza 24
poussière 24
professionnelle 24
publicité 24
rem@@ 24
scaffolding 24
sed 24
sert 24
shown 24
socks 24
spi@@ 24
spray 24
summer 24
suspended 24
ters 24
texas 24
tile 24
touching 24
tre 24
trottinette 24
tte 24
tée 24
ues 24
verse 24
vives 24
yoga 24
you 24
.@@ 23
advertisement 23
air@@ 23
airport 23
animals 23
anti@@ 23
aring 23
arri@@ 23
assor@@ 23
attractions 23
atv 23
aéroport 23
backpacks 23
banjo 23
basketteur 23
blocs 23
blouson 23
bow 23
brillant 23
buissons 23
béret 23
candy 23
cartes 23
caught 23
certaines 23
chain 23
chaîne 23
circuit 23
climber 23
dessous 23
dining 23
discuter 23
dj 23
dry 23
ears 23
embrassant 23
fenced 23
foin 23
fou@@ 23
ger@@ 23
german 23
gers 23
glaces 23
gli@@ 23
gradins 23
grand@@ 23
grandes 23
hay 23
hel@@ 23
hood 23
hooded 23
horizon 23
indienne 23
japanese 23
jolie 23
jou@@ 23
kneels 23
landscape 23
lasso 23
long-haired 23
lèvent 23
marine 23
mix@@ 23
monter 23
ors 23
paints 23
participe 23
peace 23
perche 23
plaza 23
pointe 23
poissons 23
post 23
pr@@ 23
profitent 23
pée 23
raised 23
rebord 23
ressemble 23
rural 23
répare 23
sand@@ 23
sapin 23
service 23
serving 23
sheep 23
sporting 23
stove 23
ties 23
tirent 23
towel 23
tran@@ 23
trans@@ 23
underwater 23
uni@@ 23
visages 23
vous 23
we 23
welding 23
xe 23
yant 23
ze 23
échafaudage 23
2012 22
8 22
act 22
africains 22
aidant 22
aliments 22
allongés 22
amusement 22
ange 22
appuyé 22
athletic 22
automne 22
ave 22
ballet 22
bancs 22
bateaux 22
bending 22
berger 22
bouteilles 22
brandissant 22
brea@@ 22
brush 22
brushing 22
casquettes 22
caucasian 22
checkered 22
choses 22
chés 22
cru@@ 22
cré@@ 22
danseurs 22
dant 22
decorated 22
employé 22
examining 22
fer@@ 22
fil@@ 22
fluo 22
fro@@ 22
gant 22
gla@@ 22
gobelet 22
good 22
gravel 22
grilling 22
hip@@ 22
identiques 22
indien 22
individual 22
individus 22
int 22
kilt 22
lacrosse 22
let 22
levant 22
lon@@ 22
manifestation 22
marchandises 22
men@@ 22
mom 22
money 22
mouillé 22
multicolores 22
n&apos; 22
neon 22
nettoyer 22
ning 22
nu@@ 22
off@@ 22
oire 22
operating 22
orchestra 22
ori@@ 22
orn@@ 22
participating 22
pass@@ 22
photograph@@ 22
pins 22
pit@@ 22
plaque 22
print 22
proje@@ 22
rame 22
read 22
referee 22
rire 22
scouts 22
seems 22
shaped 22
shes 22
soulève 22
ssée 22
sted 22
stones 22
str@@ 22
tan@@ 22
teacher 22
things 22
thrown 22
tiré 22
tomber 22
tongs 22
tur@@ 22
turban 22
turquoise 22
tw@@ 22
ux 22
vehicles 22
vol 22
wh@@ 22
éclairé 22
1 21
accroche 21
adversaire 21
affaires 21
allemand 21
alpiniste 21
amp 21
américains 21
ang@@ 21
arcade 21
attempt 21
auditorium 21
benches 21
bre@@ 21
bs 21
but@@ 21
button 21
card 21
carte 21
cartons 21
cel@@ 21
cent 21
chacun 21
chase 21
chaussure 21
chest 21
chée 21
cit@@ 21
ck@@ 21
cked 21
compete 21
cone 21
cr@@ 21
crouches 21
ction 21
cuisinant 21
câlin 21
cônes 21
dan@@ 21
danseuses 21
discours 21
dormir 21
décor@@ 21
eling 21
ements 21
ered 21
fauteuils 21
feeding 21
firefighters 21
fo@@ 21
fs 21
gazon 21
ght 21
haircut 21
half 21
hallway 21
harness 21
heels 21
hitting 21
hum@@ 21
images 21
incendie 21
ish 21
iss@@ 21
kiosque 21
lant 21
magnifique 21
map 21
motards 21
muddy 21
navy 21
ns 21
only 21
onnée 21
opponent 21
ouvert 21
pal@@ 21
passagers 21
passengers 21
pen 21
photographs 21
plafond 21
planches 21
pleure 21
pon@@ 21
poutre 21
practice 21
presentation 21
publicitaire 21
racer 21
rafting 21
rase 21
regard 21
rent 21
ressemblant 21
rests 21
ropes 21
routine 21
rowing 21
scuba 21
sem@@ 21
sets 21
sharing 21
shoot 21
sièges 21
sli@@ 21
spon@@ 21
sticking 21
super@@ 21
sweat@@ 21
sée 21
teurs 21
toucher 21
tourists 21
travailleurs 21
tub 21
turning 21
types 21
utiliser 21
vie@@ 21
vitesse 21
ér@@ 21
étranger 21
6 20
accident 20
acheter 20
affi@@ 20
ages 20
agitant 20
ahead 20
aider 20
aller 20
also 20
approche 20
arm@@ 20
arr@@ 20
arrête 20
ars 20
arti@@ 20
bank 20
bars 20
bathroom 20
beau 20
blazer 20
boun@@ 20
cap@@ 20
carpet 20
case 20
chanter 20
cl@@ 20
cleans 20
colle@@ 20
color@@ 20
combinaisons 20
commence 20
craft 20
cted 20
cuisinier 20
cul@@ 20
dal@@ 20
dent 20
dirige 20
droit 20
drummer 20
dur 20
déjeuner 20
eight 20
embrassent 20
enseigne 20
entraînement 20
ering 20
fac@@ 20
fan 20
filets 20
fleur 20
flottant 20
fly 20
frais 20
got 20
great 20
groups 20
guitars 20
hang 20
harnais 20
headscarf 20
hoops 20
hor@@ 20
hur@@ 20
iles 20
illant 20
jongle 20
jumpsuit 20
kayaks 20
ke@@ 20
lar 20
lent 20
long-sleeved 20
légèrement 20
machinery 20
met@@ 20
model 20
montrent 20
motorcyclist 20
mustache 20
métalliques 20
nagent 20
ops 20
oreille 20
our@@ 20
papa 20
past@@ 20
patinoire 20
policeman 20
port 20
portables 20
porter 20
posé 20
prise 20
préparer 20
prêts 20
racetrack 20
rails 20
ran@@ 20
re-@@ 20
res 20
rough 20
récupérer 20
she@@ 20
sink 20
snowboarding 20
soda 20
sortant 20
space 20
speech 20
start 20
swe@@ 20
tail 20
thers 20
tool 20
turns 20
urbaine 20
vaste 20
viewing 20
véhicules 20
wheels 20
wide 20
wing 20
wire 20
ab@@ 19
achetant 19
ajuste 19
alignés 19
appréciant 19
army 19
arrive 19
arro@@ 19
automatique 19
band@@ 19
bath 19
battre 19
beam 19
bel@@ 19
beverage 19
bibliothèque 19
birthday 19
boardwalk 19
boisé 19
bordé 19
bow@@ 19
bun@@ 19
bushes 19
buy 19
ceiling 19
cho@@ 19
cks 19
coach 19
coiff@@ 19
college 19
converse 19
coun@@ 19
crosses 19
crouching 19
crête 19
dark-skinned 19
dor@@ 19
doré 19
dress@@ 19
décor 19
eastern 19
entraîneur 19
envoie 19
euses 19
explor@@ 19
faite 19
fancy 19
faux 19
first 19
formation 19
fra@@ 19
fri@@ 19
froid 19
gravier 19
grimpant 19
groupes 19
gée 19
herself 19
heureuse 19
hillside 19
horseback 19
imposant 19
indi@@ 19
indoors 19
issant 19
lane 19
leaving 19
let@@ 19
lit@@ 19
medical 19
membre 19
menu 19
microphones 19
mohawk 19
more 19
moteur 19
museum 19
musée 19
narrow 19
neighborhood 19
nent 19
non 19
née 19
observent 19
origine 19
ously 19
paix 19
palet 19
partiellement 19
peindre 19
petting 19
pneu 19
poin@@ 19
pom@@ 19
portes 19
possibly 19
pots 19
pour@@ 19
présentation 19
puck 19
py 19
pâte 19
quet 19
rapidement 19
reposent 19
ribbon 19
ry 19
san 19
scooters 19
sells 19
slides 19
smoke 19
snow-covered 19
spinning 19
sters 19
stopped 19
swimmer 19
tag 19
tambour 19
tattooed 19
tee 19
tents 19
trompette 19
trumpet 19
téléphonique 19
télévision 19
ures 19
vaisselle 19
vant 19
ven@@ 19
vendors 19
vététiste 19
x@@ 19
z 19
ème 19
épée 19
œufs 19
œuvre 19
-up 18
4@@ 18
9@@ 18
accroché 18
accroupie 18
africaine 18
afro-américaine 18
agenouillée 18
anci@@ 18
anniversaire 18
apprêtent 18
arme 18
artistes 18
atelier 18
athlètes 18
ative 18
backs 18
badge 18
bassin 18
bear 18
bijoux 18
bottles 18
boueuse 18
branche 18
buckets 18
cab@@ 18
cabane 18
cardboard 18
caresse 18
carnaval 18
celebrating 18
chanson 18
chanteuse 18
chaque 18
cher@@ 18
clay 18
cle@@ 18
coiffure 18
collection 18
commer@@ 18
conference 18
cool 18
corn 18
corps 18
cts 18
cône 18
cœur 18
der@@ 18
dishes 18
diver@@ 18
déplace 18
elmo 18
enterta@@ 18
entrance 18
entraîne 18
erie 18
excited 18
factory 18
faiblement 18
fau@@ 18
fencing 18
foire 18
folding 18
fort 18
funny 18
gas 18
gle 18
griller 18
grimace 18
guitarist 18
géant 18
heart 18
helps 18
hol@@ 18
hospital 18
hotel 18
hugs 18
hôpital 18
incl@@ 18
indiens 18
ires 18
ites 18
ière 18
je@@ 18
jeep 18
john 18
journaux 18
lampe 18
lavant 18
lay 18
maisons 18
mal@@ 18
mall 18
maman 18
maquillage 18
maroon 18
mixing 18
mostly 18
motor@@ 18
moustache 18
na@@ 18
nautique 18
onné 18
opération 18
ornate 18
outstretched 18
panneaux 18
pant 18
pick 18
pieces 18
plancher 18
plates 18
plongeant 18
poitrine 18
positi@@ 18
pouce 18
professionnel 18
protest 18
puppy 18
quarterback 18
qué 18
ren@@ 18
rubber 18
récipient 18
seats 18
sent 18
serrant 18
shepherd 18
sil@@ 18
sin@@ 18
skaters 18
skates 18
snack 18
som@@ 18
song 18
sor@@ 18
souffle 18
spir@@ 18
squatting 18
ssi@@ 18
ssion 18
starting 18
stu@@ 18
th 18
times 18
tiss@@ 18
toil@@ 18
tombé 18
torses 18
tour@@ 18
tramway 18
tropical 18
uniformed 18
up@@ 18
vitre 18
vêtement 18
youth 18
ys 18
âne 18
él@@ 18
éti@@ 18
étrange 18
? 17
ado@@ 17
adossé 17
africain 17
ais 17
amuse 17
ancien 17
ands 17
apartment 17
appli@@ 17
aquarium 17
ara@@ 17
art. 17
ary 17
attachés 17
atter@@ 17
attrapant 17
aérienne 17
balances 17
barres 17
belt 17
billard 17
bling 17
blondes 17
blows 17
boisée 17
bonnets 17
boutique 17
bowls 17
boxing 17
brique 17
broom 17
brouette 17
cabine 17
caisses 17
cale 17
calf 17
canal 17
castle 17
chaude 17
chiot 17
coloring 17
condu@@ 17
conducteur 17
creuse 17
cuts 17
cyc@@ 17
da 17
dead 17
dedans 17
dessin 17
din@@ 17
doctor 17
dol@@ 17
dom@@ 17
doors 17
duck 17
ear@@ 17
embrasure 17
emp@@ 17
engine 17
envers 17
ess@@ 17
ethnic 17
europe 17
fil 17
finger 17
finish 17
firetruck 17
fisherman 17
flanc 17
fle@@ 17
flipping 17
float 17
fol@@ 17
fran@@ 17
furniture 17
fusil 17
gam@@ 17
gne 17
gon@@ 17
graph@@ 17
grinding 17
gymnastique 17
gé@@ 17
hair@@ 17
halloween 17
handstand 17
ill 17
illent 17
iller 17
inspecting 17
install@@ 17
instru@@ 17
isé 17
item 17
ka@@ 17
kings 17
lage 17
le-@@ 17
leading 17
levé 17
levés 17
library 17
lines 17
lisent 17
london 17
lou@@ 17
lé@@ 17
ma 17
mannequin 17
member 17
micros 17
nacelle 17
ned 17
notes 17
nous 17
nouveau-né 17
ombrelle 17
palmiers 17
pan 17
paniers 17
papillon 17
part@@ 17
partout 17
pet@@ 17
pinata 17
pine 17
pitch 17
plonge 17
poil 17
pol@@ 17
polka 17
pêcheur 17
rang 17
reflective 17
reposant 17
rink 17
rocheux 17
roues 17
ré 17
sant 17
scenery 17
seaux 17
sized 17
sleeveless 17
smokes 17
spraying 17
stack 17
stares 17
storefront 17
story 17
stretching 17
stripes 17
stroll 17
sword 17
tatouages 17
tattoos 17
tenu 17
top@@ 17
unes 17
vegetable 17
vente 17
victoire 17
visible 17
vre 17
wal@@ 17
équipements 17
étudiant 17
ê@@ 17
-down 16
5@@ 16
accro@@ 16
achètent 16
agenouillé 16
allongées 16
allum@@ 16
ant@@ 16
approaching 16
arrivée 16
arrêt@@ 16
arrêtent 16
artistique 16
ator 16
attraction 16
baignoire 16
balding 16
bande 16
banderole 16
banner 16
barrel 16
bass 16
batman 16
batter 16
benne 16
bill@@ 16
black@@ 16
bougies 16
broken 16
bré 16
buffet 16
camions 16
canard 16
candles 16
caoutchouc 16
carving 16
casino 16
cat@@ 16
chalk 16
château 16
circulant 16
clad 16
clowns 16
clôturée 16
comfor@@ 16
computers 16
contrôle 16
couche 16
craie 16
crane 16
crew 16
crème 16
crépuscule 16
dames 16
den@@ 16
discussing 16
dish 16
don@@ 16
downtown 16
décontractée 16
déguisés 16
emergency 16
entraînant 16
entre@@ 16
examinant 16
fanfare 16
farm 16
fin 16
fix 16
fli@@ 16
flip-flops 16
flot@@ 16
fluffy 16
flûte 16
folded 16
following 16
foraine 16
free 16
fron@@ 16
fully 16
fumée 16
gal@@ 16
gue 16
gymnasium 16
harmonica 16
hauteur 16
honneur 16
horn 16
houses 16
hun@@ 16
iers 16
immense 16
intently 16
iné 16
iser 16
iste 16
je 16
jewelry 16
keep 16
kite 16
lam@@ 16
lamp 16
laverie 16
lifting 16
listens 16
manche 16
marbre 16
maïs 16
mb@@ 16
meeting 16
mer@@ 16
moderne 16
monopoly 16
moped 16
motorbike 16
multi@@ 16
métier 16
naked 16
nes 16
nettoient 16
nighttime 16
nourrisson 16
né 16
objects 16
oc@@ 16
ot 16
outil 16
overhead 16
paire 16
parquet 16
pati@@ 16
percu@@ 16
porte-@@ 16
posés 16
poteaux 16
quat@@ 16
quette 16
rainy 16
raises 16
rap@@ 16
reach 16
receveur 16
réparant 16
scolaire 16
scra@@ 16
serre 16
shel@@ 16
sides 16
skater 16
skieurs 16
sofa 16
sortie 16
speed 16
spread 16
sprin@@ 16
sprinkler 16
stairway 16
stea@@ 16
stic@@ 16
stru@@ 16
surrounding 16
sym@@ 16
television 16
temple 16
théâtre 16
tied 16
tle 16
toge 16
toges 16
tou@@ 16
tourist 16
traditionnel 16
transport 16
traîneau 16
tru@@ 16
trucks 16
turned 16
usine 16
vendeurs 16
ventre 16
viol@@ 16
vit@@ 16
voies 16
volent 16
vé 16
walmart 16
ward 16
warm 16
world 16
yel@@ 16
yer 16
éc@@ 16
éclabou@@ 16
écossaise 16
écoutent 16
écrivant 16
éloignant 16
équ@@ 16
&apos;t 15
0 15
: 15
achète 15
act@@ 15
advertising 15
aged 15
agents 15
agite 15
aires 15
amongst 15
angle 15
animé 15
appareils 15
applaudissent 15
arc-en-ciel 15
arrosage 15
asie 15
assembl@@ 15
auto@@ 15
badauds 15
ballerina 15
bandeau 15
barber 15
barri@@ 15
beneath 15
bikinis 15
ble@@ 15
bloc@@ 15
blow 15
bonbons 15
branch 15
called 15
cameras 15
cans 15
care 15
catcher 15
ceinture 15
cerceau 15
chaud 15
co 15
come 15
control 15
cowboys 15
crayon 15
crayons 15
creusant 15
crie 15
crâne 15
ctions 15
denti@@ 15
dessinant 15
discute 15
documents 15
domin@@ 15
donner 15
dro@@ 15
décoré 15
découpe 15
détendent 15
electronic 15
elephant 15
embrasser 15
endor@@ 15
engaged 15
engin 15
escaladent 15
escrime 15
extérieure 15
fier 15
film 15
fireman 15
flotte 15
flowered 15
follows 15
forward 15
fre@@ 15
froide 15
féminin 15
geste 15
gg@@ 15
gravissant 15
gues 15
gy@@ 15
gé 15
hal@@ 15
headband 15
hits 15
if 15
ili@@ 15
ille@@ 15
individu 15
iner 15
ing@@ 15
inspecte 15
intére@@ 15
iques 15
iron 15
isent 15
ises 15
jockeys 15
laire 15
lampadaire 15
laver 15
lecture 15
leggings 15
liquid 15
liquide 15
lounge 15
lounging 15
lèvres 15
marquer 15
mass@@ 15
material 15
mini-@@ 15
miniature 15
monocycle 15
my 15
médecin 15
name 15
necklace 15
newborn 15
numerous 15
observing 15
odd 15
ol 15
oms 15
once 15
paddle 15
pagaie 15
papers 15
para@@ 15
parent 15
partially 15
participate 15
passants 15
patin@@ 15
penchée 15
pigeon 15
places 15
plante 15
ples 15
plongée 15
plumes 15
pottery 15
poupée 15
pratiquent 15
present 15
prin@@ 15
probablement 15
produisant 15
produisent 15
protesting 15
quement 15
races 15
raising 15
ramassant 15
redheaded 15
relax 15
repair 15
ron@@ 15
récol@@ 15
réunissent 15
scie 15
science 15
sculptures 15
security 15
semblant 15
serves 15
shades 15
shaved 15
shovels 15
show@@ 15
smaller 15
sportif 15
ssed 15
sser 15
star 15
swimmers 15
tar@@ 15
teammate 15
tentes 15
terie 15
termin@@ 15
theater 15
thin 15
ti 15
tirée 15
tière 15
toile 15
tourner 15
training 15
trains 15
ty@@ 15
tés 15
unicycle 15
valise 15
veau 15
venue 15
violets 15
voler 15
wed 15
white-@@ 15
wife 15
wings 15
wrestle 15
xylophone 15
â@@ 15
ç@@ 15
écartés 15
éch@@ 15
électronique 15
éri@@ 15
- 14
6@@ 14
abo@@ 14
admiring 14
ail 14
airborne 14
aises 14
aisle 14
amie 14
angel 14
appro@@ 14
argenté 14
ascen@@ 14
aspirateur 14
athletes 14
attente 14
aussi 14
bac 14
bai@@ 14
balan@@ 14
bas-côté 14
batt@@ 14
been 14
biking 14
billboard 14
binoculars 14
bit 14
book@@ 14
bordeaux 14
boueux 14
bout@@ 14
bouée 14
boxer 14
bran@@ 14
bru@@ 14
bulle 14
calm 14
camel 14
caps 14
cards 14
caress@@ 14
carry 14
casual 14
celle 14
cerf-volant 14
charrette 14
chau@@ 14
chorale 14
cing 14
claire 14
client 14
cobblestone 14
collants 14
company 14
composé 14
concentr@@ 14
construisant 14
contenant 14
cook 14
cool@@ 14
couteau 14
coéquipier 14
crafts 14
cti@@ 14
cuire 14
cuisinière 14
cy@@ 14
câbles 14
dess@@ 14
destination 14
dge 14
dies 14
dire@@ 14
diverses 14
donkey 14
dough 14
dre@@ 14
dresse 14
décou@@ 14
dégarni 14
eds 14
en-@@ 14
entourés 14
entraînent 14
exten@@ 14
fake 14
falls 14
far@@ 14
fenêtres 14
ferrée 14
firemen 14
fix@@ 14
forestier 14
frisés 14
garé 14
garés 14
gen@@ 14
gestes 14
gging 14
gift 14
glacier 14
glacée 14
glove 14
grille 14
grue 14
guards 14
guide 14
guns 14
hap@@ 14
her@@ 14
homeless 14
hug 14
ign@@ 14
illé 14
illés 14
imperméable 14
ining 14
interacting 14
intervie@@ 14
iti@@ 14
japonais 14
jenga 14
job 14
leads 14
lequel 14
lion 14
loading 14
logo 14
mil@@ 14
mini@@ 14
mon 14
most 14
mè@@ 14
nager 14
nageurs 14
neaux 14
nou@@ 14
nuageux 14
ny 14
olympiques 14
on-@@ 14
onnant 14
partageant 14
partagent 14
passenger 14
patin 14
peering 14
penchant 14
performers 14
photographed 14
pil@@ 14
pillow 14
pin 14
pirate 14
ple 14
pneus 14
pretty 14
professeur 14
protéger 14
pur@@ 14
push 14
quel@@ 14
radio 14
rainbow 14
ral 14
rapides 14
raquettes 14
receiving 14
repairs 14
retournant 14
rod 14
rollerblades 14
rouler 14
russes 14
région 14
sac@@ 14
sales 14
sans-abri 14
savoure 14
saw 14
scarves 14
scientifique 14
sen@@ 14
seur 14
shakes 14
share 14
shining 14
shops 14
silly 14
skie 14
skiers 14
slightly 14
smo@@ 14
son@@ 14
souff@@ 14
sous-@@ 14
splashes 14
state 14
steel 14
stic 14
straight 14
sty@@ 14
support 14
tea 14
teaching 14
tin@@ 14
tir@@ 14
tombant 14
tow@@ 14
tower 14
trailer 14
trem@@ 14
tribal 14
trico@@ 14
trunk 14
tv 14
upon 14
venant 14
vie 14
wading 14
weaving 14
whilst 14
wn 14
wor@@ 14
ène 14
également 14
éléphant 14
évier 14
œil 14
œuvres 14
9 13
acrobatie 13
aident 13
aise 13
and@@ 13
ane 13
apprécient 13
arch@@ 13
assiettes 13
autumn 13
bains 13
bare 13
baril 13
barrier 13
basketteurs 13
bil@@ 13
bin 13
bleachers 13
blouses 13
borne 13
bretelles 13
brillante 13
browsing 13
burgundy 13
bystanders 13
bé@@ 13
bébés 13
ca 13
caddie 13
carts 13
ced 13
ceremony 13
chainsaw 13
cham@@ 13
check 13
checks 13
cheer 13
cherchant 13
chev@@ 13
chiots 13
chées 13
cigarettes 13
cir@@ 13
coaster 13
comes 13
command@@ 13
commencer 13
consisting 13
cornemuse 13
croix 13
cuillère 13
cups 13
customer 13
dad 13
dding 13
debris 13
descent 13
dessine 13
dia@@ 13
dimly 13
diplô@@ 13
dirigeant 13
disant 13
disputent 13
document 13
drill 13
dusk 13
dé 13
débris 13
départ 13
east 13
eggs 13
enta@@ 13
entering 13
escalader 13
eu@@ 13
examines 13
exhibit 13
expression 13
eye@@ 13
fam@@ 13
farmer 13
ferm@@ 13
festi@@ 13
fic@@ 13
filling 13
flips 13
flute 13
fon@@ 13
foot@@ 13
form 13
fraî@@ 13
garée 13
gestures 13
gged 13
greyhound 13
groceries 13
grosses 13
grou@@ 13
headed 13
high-@@ 13
hôtel 13
illumin@@ 13
ind@@ 13
intérieure 13
jack@@ 13
jetant 13
justaucorps 13
keys 13
knit 13
laires 13
landing 13
laptops 13
lar@@ 13
lave 13
lead 13
londres 13
magasins 13
manifestants 13
maqu@@ 13
messy 13
mettent 13
mid 13
modern 13
morceaux 13
mousse 13
mouton 13
moutons 13
mouvements 13
mug 13
musel@@ 13
mé 13
observes 13
obstacles 13
official 13
onal 13
ones 13
order 13
orientale 13
oven 13
overweight 13
pack 13
paddles 13
parasols 13
partir 13
peints 13
perceuse 13
perron 13
pleurs 13
poterie 13
praying 13
première 13
pâle 13
pêcher 13
quer 13
rant 13
ray@@ 13
retriever 13
reçoit 13
rickshaw 13
rows 13
run@@ 13
rés 13
réunion 13
sack 13
sailing 13
san@@ 13
sauvage 13
screaming 13
semi-@@ 13
servant 13
serve 13
shoo@@ 13
side@@ 13
similar 13
sive 13
sle@@ 13
sneakers 13
sons 13
spoon 13
spotted 13
stat@@ 13
stomach 13
street@@ 13
studying 13
sé 13
tage 13
talent 13
target 13
tatoué 13
tel@@ 13
telephone 13
tending 13
the@@ 13
tires 13
touches 13
tubes 13
tutu 13
ultimate 13
vel@@ 13
vic@@ 13
vil 13
voy@@ 13
vres 13
wakeboard 13
wares 13
was 13
waterfront 13
waterway 13
ways 13
wel@@ 13
wheelbarrow 13
wheelie 13
wr@@ 13
écrire 13
étoile 13
étran@@ 13
û@@ 13
10 12
8@@ 12
abrupte 12
activ@@ 12
aff@@ 12
alleyway 12
alli@@ 12
allure 12
america 12
américaine 12
ann@@ 12
applying 12
aqua 12
arche 12
argile 12
armée 12
as@@ 12
asper@@ 12
attachée 12
atten@@ 12
attending 12
aut@@ 12
avan@@ 12
ave@@ 12
badminton 12
bagpipes 12
baguettes 12
baissée 12
balayant 12
bamboo 12
beanie 12
belles 12
ber 12
bes 12
beverages 12
bite 12
biting 12
blankets 12
body@@ 12
bols 12
bombe 12
bordure 12
bot@@ 12
bouclés 12
boulder 12
boules 12
bracelet 12
breakdance 12
bricks 12
brû@@ 12
bul@@ 12
bulldozer 12
bureaux 12
burning 12
cad@@ 12
canot 12
canyon 12
carrelage 12
cas@@ 12
cello 12
centre-ville 12
chass@@ 12
chem@@ 12
chicken 12
china 12
chips 12
cible 12
cin@@ 12
clapping 12
cles 12
comm@@ 12
comp@@ 12
complete 12
contem@@ 12
contrebas 12
coo@@ 12
cooks 12
cop@@ 12
corpulent 12
countryside 12
coups 12
courte 12
couvertures 12
couvre 12
covers 12
croisés 12
ct 12
dar@@ 12
deaux 12
deli@@ 12
dering 12
design 12
disque 12
diver 12
doll 12
dorment 12
dorée 12
double 12
dragon 12
drib@@ 12
drive 12
dust 12
eff@@ 12
engagés 12
entrer 12
entretien 12
environ 12
essayer 12
eusement 12
exercise 12
exper@@ 12
exposé 12
fair@@ 12
far 12
fashioned 12
fire@@ 12
forces 12
forehead 12
fourrure 12
frère 12
fum@@ 12
galerie 12
games 12
garées 12
give 12
glisser 12
gol@@ 12
gravit 12
grimaces 12
gymnastics 12
handing 12
heading 12
herbeux 12
highway 12
hockeyeurs 12
hou@@ 12
ian 12
ical 12
identi@@ 12
impressi@@ 12
incline 12
indiennes 12
inspects 12
inst@@ 12
ition 12
ized 12
jailli@@ 12
joué 12
juice 12
jumelles 12
jus 12
kers 12
ki@@ 12
knees 12
knife 12
kno@@ 12
ky 12
laine 12
land@@ 12
late 12
leaf 12
legos 12
lers 12
lettres 12
ley 12
lifted 12
lignes 12
lin 12
listen 12
load 12
location 12
long-sleeve 12
love 12
mag@@ 12
maintenance 12
mal 12
manu@@ 12
mark 12
matelas 12
merchandise 12
miami 12
moitié 12
motion 12
movie 12
mul@@ 12
mâ@@ 12
médi@@ 12
mélange 12
nageur 12
nail 12
nant 12
newly 12
newspapers 12
nouvellement 12
nuages 12
obser@@ 12
ols 12
olympics 12
ow@@ 12
p-@@ 12
page 12
paperwork 12
papiers 12
parachu@@ 12
patineurs 12
patterned 12
pay@@ 12
peut 12
pigtails 12
pillows 12
pièces 12
placing 12
play@@ 12
plongeoir 12
poignée 12
pomme 12
pommes 12
porche 12
presenting 12
presque 12
présente 12
pub 12
pulvéri@@ 12
puppies 12
qui@@ 12
ramasse 12
range 12
rayés 12
rebon@@ 12
record 12
repairing 12
retourne 12
rice 12
rock@@ 12
rollerblading 12
rub@@ 12
rée 12
s. 12
sail@@ 12
saris 12
seattle 12
second 12
seem 12
sele@@ 12
shadows 12
shirted 12
shoppers 12
ski@@ 12
snowsuit 12
so 12
société 12
sombres 12
sooners 12
soude 12
sour@@ 12
sous-vêtements 12
spanish 12
stare 12
still 12
sto@@ 12
stoc@@ 12
stops 12
stores 12
stylo 12
sub@@ 12
suitcase 12
superman 12
surpoids 12
surveille 12
sweeps 12
tackle 12
tam@@ 12
teal 12
teen 12
terrier 12
thumbs 12
til@@ 12
tired 12
tombée 12
ton@@ 12
tondeuse 12
tossing 12
tray 12
tronçonneuse 12
tures 12
télé@@ 12
umpire 12
val@@ 12
vement 12
verti@@ 12
visiting 12
vu 12
wild 12
wires 12
work@@ 12
wrap 12
wrestler 12
zoo 12
éclaboussant 12
éclairage 12
écume 12
élé@@ 12
én@@ 12
éta@@ 12
étreignent 12
étroite 12
ô@@ 12
7 11
accroupit 11
acier 11
adjusting 11
admire 11
adolescente 11
affrontant 11
african-american 11
ailes 11
aine 11
alignées 11
allant 11
amar@@ 11
appe@@ 11
apprend 11
appréci@@ 11
appuyant 11
arch 11
arrière-cour 11
artifici@@ 11
artwork 11
ately 11
atif 11
automobile 11
backdrop 11
baig@@ 11
ballerine 11
barrières 11
beaux 11
black-haired 11
bly 11
bonne 11
cani@@ 11
carefully 11
cavaliers 11
celebration 11
cem@@ 11
chameaux 11
chargement 11
chatting 11
chaî@@ 11
cheek 11
chers 11
chess 11
chette 11
cheurs 11
chu@@ 11
circule 11
clarin@@ 11
cle 11
closely 11
cloth@@ 11
collie 11
colonnes 11
construire 11
conver@@ 11
creek 11
crossed 11
crouched 11
crée 11
ctor 11
cycling 11
célé@@ 11
ddle 11
defen@@ 11
department 11
dic@@ 11
diner 11
dir@@ 11
dives 11
dles 11
done 11
dot 11
drawn 11
dusty 11
déchets 11
découper 11
déplacent 11
déplaçant 11
détend 11
embar@@ 11
embra@@ 11
encoura@@ 11
enthousiasme 11
enthousiaste 11
enthousiastes 11
enthusia@@ 11
enveloppé 11
essentiellement 11
exam@@ 11
fashion 11
filme 11
finished 11
firefighter 11
fleurie 11
floats 11
focused 11
ford 11
frap@@ 11
free@@ 11
gathers 11
gobelets 11
grav@@ 11
gui@@ 11
géante 11
hache 11
haie 11
han@@ 11
hea@@ 11
hotdogs 11
hut 11
ics 11
ien 11
ills 11
ily 11
immeubles 11
imprimé 11
injured 11
installant 11
involved 11
ipod 11
isi@@ 11
ital@@ 11
itu@@ 11
jack 11
jonglant 11
joueuses 11
k-@@ 11
kayaking 11
khakis 11
kit@@ 11
kn@@ 11
lancé 11
larger 11
laundromat 11
learning 11
lem@@ 11
lifts 11
lighted 11
link 11
lips 11
logs 11
loom 11
low@@ 11
lun@@ 11
lévriers 11
maid 11
maneu@@ 11
medi@@ 11
meet 11
mes@@ 11
mets 11
meubles 11
microscopes 11
mid-@@ 11
mis 11
mol@@ 11
montgolfière 11
mord 11
morning 11
moto@@ 11
motorcyclists 11
motorized 11
mower 11
municipal 11
must@@ 11
navigue 11
nombreuse 11
nouveau 11
nuageuse 11
né@@ 11
observant 11
occupe 11
ok 11
ole 11
ong 11
opens 11
oping 11
orient 11
pagne 11
paquet 11
parall@@ 11
passersby 11
patch 11
peignent 11
pers 11
personnel 11
phase 11
picks 11
piles 11
pilot 11
piét@@ 11
placed 11
planting 11
plaqué 11
plats 11
played 11
playfully 11
pliante 11
plongeur 11
plupart 11
pons 11
ponytail 11
poor 11
posed 11
poste 11
posée 11
poursuit 11
pouss@@ 11
pousse-pousse 11
poussiéreux 11
pow@@ 11
power 11
practices 11
pratiquant 11
press@@ 11
printed 11
pè@@ 11
pêchant 11
que@@ 11
rally 11
ramant 11
rament 11
rapids 11
rassemble 11
rayon 11
recei@@ 11
recl@@ 11
refle@@ 11
regi@@ 11
remplis 11
reposer 11
reste 11
rive 11
rollerskating 11
roun@@ 11
row@@ 11
saisit 11
sauté 11
saxoph@@ 11
scu@@ 11
sec@@ 11
section 11
sel@@ 11
serv@@ 11
shoe@@ 11
shoreline 11
si 11
sit@@ 11
sn@@ 11
snowshoes 11
sortir 11
spar@@ 11
speak 11
spect 11
sprinklers 11
ssés 11
stac@@ 11
stant 11
sti@@ 11
stor@@ 11
strange 11
stre 11
sunlight 11
supplies 11
surgery 11
surve@@ 11
suspenders 11
suspendue 11
swimsuits 11
série 11
sés 11
tackling 11
tain 11
tales 11
teaux 11
teens 11
ten 11
tendant 11
thin@@ 11
thé 11
tights 11
tiny 11
tisser 11
torch 11
tournoi 11
tourné 11
traditionnelle 11
traveling 11
traî@@ 11
trip 11
trolley 11
trot@@ 11
tuba 11
underwear 11
unk 11
urer 11
ven 11
violettes 11
violoncelle 11
vision 11
voilier 11
war@@ 11
washer 11
watched 11
wea@@ 11
weather 11
wer 11
wind@@ 11
wning 11
won@@ 11
yarn 11
zes 11
échecs 11
écoliers 11
écossais 11
épicerie 11
étoffe 11
étudie 11
# 10
-like 10
11 10
acc@@ 10
accom@@ 10
accroupis 10
ace 10
ach@@ 10
activity 10
ad 10
adv@@ 10
adverses 10
afri@@ 10
afro-américains 10
amidst 10
amish 10
amu@@ 10
apart 10
approaches 10
appuy@@ 10
argentée 10
armes 10
asia 10
asians 10
asphalte 10
atiques 10
ators 10
attendre 10
avi@@ 10
balancent 10
ball@@ 10
bandoulière 10
bascule 10
belts 10
bières 10
blessé 10
bloc 10
blood 10
bob 10
bongo 10
boîtes 10
brass 10
break@@ 10
brother 10
buil@@ 10
button@@ 10
bét@@ 10
calme 10
canette 10
canvas 10
capot 10
cast 10
casually 10
celebrate 10
celui 10
cent@@ 10
certain 10
chalkboard 10
chameau 10
champagne 10
charge 10
chariots 10
chasse 10
cheese 10
choisi@@ 10
chopping 10
chorégraphie 10
chute 10
citron 10
classic 10
coa@@ 10
coca-cola 10
coiffe 10
collared 10
collines 10
commande 10
communic@@ 10
conce@@ 10
concentre 10
concours 10
conta@@ 10
contin@@ 10
contraption 10
cop 10
couchée 10
couvrant 10
couvre-chef 10
cover 10
creating 10
ct@@ 10
cuisiner 10
curi@@ 10
cute 10
câ@@ 10
cé 10
dal 10
decor@@ 10
decorative 10
demonstr@@ 10
dev@@ 10
digital 10
disney 10
displaying 10
displays 10
distribu@@ 10
dit@@ 10
driveway 10
dun@@ 10
dy 10
décol@@ 10
dée 10
déf@@ 10
dégu@@ 10
déguisé 10
délabré 10
déploy@@ 10
désor@@ 10
earphones 10
ele@@ 10
embracing 10
emer@@ 10
empil@@ 10
en-dessous 10
enter@@ 10
entreprise 10
environnement 10
es-@@ 10
essaient 10
essaye 10
examinent 10
experiment 10
explo@@ 10
expérience 10
facility 10
ferme 10
feu@@ 10
finir 10
finishing 10
fixes 10
fleuri 10
floo@@ 10
fois 10
fore@@ 10
frozen 10
fun@@ 10
fur 10
furry 10
gagner 10
gallery 10
gap 10
gaze 10
gazes 10
genou 10
goat 10
gratte 10
gray-haired 10
green@@ 10
habits 10
haired 10
ham@@ 10
handrail 10
headdress 10
helicopter 10
hiding 10
hike 10
histor@@ 10
hotdog 10
hélicoptère 10
ici 10
id@@ 10
illa@@ 10
illon 10
inc@@ 10
ind 10
information 10
inspectent 10
involving 10
joie 10
juggles 10
kie 10
kimonos 10
kitesurf 10
laden 10
laun@@ 10
league 10
leap 10
lens 10
leotard 10
lette 10
lever 10
lighting 10
lingerie 10
lo 10
lobby 10
located 10
lut@@ 10
lée 10
manipule 10
march 10
mari@@ 10
med 10
ments 10
mess@@ 10
mexican 10
mince 10
mixer 10
moins 10
monitor 10
moo@@ 10
mop 10
moyen-orient 10
mule 10
nati@@ 10
navire 10
nee@@ 10
nettoy@@ 10
news 10
nike 10
nom@@ 10
note 10
nouvelle 10
num@@ 10
numbers 10
nurses 10
nœud 10
obama 10
obscurité 10
offici@@ 10
olive 10
oned 10
oning 10
op 10
ots 10
ouvrant 10
pads 10
pale 10
parti@@ 10
participants 10
passi@@ 10
patau@@ 10
patineur 10
pav@@ 10
peeking 10
peinte 10
pellette 10
perdu 10
photographi@@ 10
physi@@ 10
pie 10
piercing 10
pilotes 10
pistolet 10
plaisir 10
poche 10
pointant 10
poli@@ 10
polit@@ 10
ponton 10
port@@ 10
poulet 10
pper 10
process 10
proche 10
products 10
promen@@ 10
prou@@ 10
préla@@ 10
prépar@@ 10
punch 10
pupitre 10
pées 10
périlleux 10
quent 10
questi@@ 10
queur 10
quickly 10
quit@@ 10
racers 10
rappel 10
raser 10
reflet 10
regar@@ 10
religieuse 10
remplit 10
renaissance 10
restauration 10
rets 10
reux 10
rit@@ 10
roadside 10
robot 10
ronde 10
rooftop 10
récu@@ 10
réunies 10
sarcelle 10
scaffold 10
scar@@ 10
sci@@ 10
scre@@ 10
secoue 10
series 10
seulement 10
sha@@ 10
shape 10
shar@@ 10
shi@@ 10
shing 10
sideways 10
signalisation 10
single 10
siro@@ 10
situé 10
skies 10
slip 10
slo@@ 10
snowboar@@ 10
soir 10
speaker 10
sportive 10
sprayed 10
ssière 10
stance 10
stepping 10
stilts 10
storm 10
stroke 10
suite 10
surfs 10
tabl@@ 10
tags 10
tails 10
tal 10
tambour@@ 10
tapant 10
tch 10
technique 10
tendus 10
thing 10
thumb 10
tis 10
tissant 10
toddlers 10
tond 10
torches 10
touch 10
touchant 10
tournament 10
tranquille 10
transportation 10
trashcan 10
travailleur 10
tres 10
triste 10
twir@@ 10
uk@@ 10
upward 10
usa 10
vac@@ 10
vacances 10
valley 10
vendent 10
viennent 10
volkswagen 10
vont 10
voyage 10
vus 10
walked 10
washes 10
whom 10
will 10
workout 10
workshop 10
échafaudages 10
échasses 10
écouter 10
écrans 10
émer@@ 10
épais 10
époux 10
étire 10
œuf 10
-colored 9
00 9
achet@@ 9
ack 9
acting 9
adjusts 9
admir@@ 9
adorable 9
afternoon 9
agenouillés 9
agricole 9
aju@@ 9
almost 9
amérique 9
appartement 9
appr@@ 9
aprons 9
après-midi 9
artifice 9
asse 9
assem@@ 9
assistant 9
atm 9
attractive 9
aver@@ 9
baiser 9
balançant 9
balay@@ 9
bannière 9
bath@@ 9
bathtub 9
begins 9
belongings 9
bends 9
beret 9
berry 9
bes@@ 9
bicycling 9
billets 9
bin@@ 9
bizarre 9
blue-@@ 9
boarding 9
bondit 9
booths 9
bouncing 9
breakdancing 9
british 9
bron@@ 9
bronz@@ 9
bronze 9
brouillard 9
brushes 9
built 9
butterfly 9
cab 9
cades 9
caf@@ 9
calèche 9
caméra@@ 9
canadian 9
canards 9
cannes 9
caricature 9
carri@@ 9
casserole 9
cav@@ 9
ceintures 9
cellphones 9
chal@@ 9
char 9
checkers 9
cheminée 9
chercher 9
chet 9
chewing 9
chine 9
chinoises 9
chocolate 9
chopsticks 9
chèvre 9
cigar 9
circular 9
circulent 9
cker 9
cleaner 9
cloud 9
clouds 9
coca 9
cockpit 9
col 9
cola 9
colli@@ 9
complet 9
containing 9
contr@@ 9
corpulente 9
couverts 9
crates 9
crowds 9
cteur 9
cuit 9
curieux 9
curly-haired 9
curr@@ 9
das 9
dau@@ 9
decorations 9
del@@ 9
designs 9
dessert 9
deuxième 9
dges 9
di 9
displayed 9
distributeur 9
dive 9
douche 9
dragging 9
draw 9
drôle 9
ducks 9
dumpster 9
durant 9
déambu@@ 9
débardeurs 9
déci@@ 9
décorations 9
découpant 9
défilent 9
démar@@ 9
effectuent 9
employees 9
eng@@ 9
enter 9
ently 9
entrant 9
entrepôt 9
even 9
exhi@@ 9
exécutent 9
ez 9
farmers 9
featuring 9
fell 9
fen@@ 9
ferrées 9
fine 9
fishes 9
flu@@ 9
flânant 9
foliage 9
foo@@ 9
foods 9
foyer 9
french 9
fris@@ 9
fromage 9
fumer 9
gardening 9
gazing 9
ged 9
gesturing 9
gham 9
ght@@ 9
gig@@ 9
gin@@ 9
glaci@@ 9
go-@@ 9
golf@@ 9
grab 9
grabbing 9
grabs 9
gradu@@ 9
guitari@@ 9
gum 9
gâteaux 9
gères 9
handed 9
handica@@ 9
handle 9
hau@@ 9
heavily 9
hen@@ 9
highchair 9
hills 9
hind 9
hispan@@ 9
hop@@ 9
hot-dog 9
hudd@@ 9
ia 9
icien 9
icy 9
iling 9
illées 9
impliquant 9
infirmières 9
informatique 9
instructions 9
intense 9
interag@@ 9
interesting 9
intégrale 9
ion 9
isse 9
itent 9
iz@@ 9
japon@@ 9
jardinage 9
jogg@@ 9
jogs 9
jol@@ 9
joli 9
jong@@ 9
joy 9
jumped 9
jumper 9
just@@ 9
kayaki@@ 9
kee@@ 9
ki 9
known 9
lancent 9
lanter@@ 9
las 9
lation 9
lay@@ 9
libre 9
lie 9
lévrier 9
magi@@ 9
main@@ 9
maje@@ 9
manifestant 9
marathoni@@ 9
marchandise 9
mari 9
mcdonald 9
mechan@@ 9
mine 9
mit@@ 9
mode@@ 9
monkey 9
monospace 9
motor 9
mouse 9
moustachu 9
muzzle 9
muzzled 9
médical 9
mée 9
mêmes 9
nappe 9
naviguant 9
nement 9
nic@@ 9
nuage 9
nue 9
odles 9
oeu@@ 9
ois 9
oklahoma 9
olympic 9
ond@@ 9
oper@@ 9
operates 9
opy 9
oreillers 9
orig@@ 9
ot@@ 9
pad 9
paint@@ 9
painter 9
parachutes 9
parasailing 9
particu@@ 9
partition 9
pastèques 9
pathway 9
patri@@ 9
patrons 9
pattern 9
peer 9
peignoir 9
pein@@ 9
peintre 9
pencil 9
percussion 9
perles 9
perruque 9
pet 9
photographes 9
photographié 9
pick@@ 9
poign@@ 9
poing 9
popcorn 9
portraits 9
poser 9
posées 9
potato 9
pourchassant 9
pourpre 9
prix 9
proches 9
prof@@ 9
projecteur 9
prom@@ 9
protesters 9
pti@@ 9
pumpkin 9
punk 9
pâ@@ 9
quoi 9
raincoat 9
rasant 9
rassemblant 9
rasé 9
rayées 9
really 9
recording 9
recou@@ 9
reflection 9
rela@@ 9
relea@@ 9
religi@@ 9
rement 9
remplissant 9
revêtement 9
rier 9
rifle 9
rings 9
riot 9
road@@ 9
rons 9
roul@@ 9
roulants 9
réal@@ 9
réfléchissant 9
réparent 9
sad 9
sage 9
salu@@ 9
saluant 9
sam@@ 9
saut@@ 9
savourent 9
sawing 9
scenic 9
score 9
scout 9
serveur 9
servir 9
shiny 9
short-haired 9
shy 9
skateurs 9
sledding 9
smash@@ 9
sniffing 9
sno@@ 9
snor@@ 9
snowboards 9
soap 9
social 9
sof@@ 9
sonn@@ 9
sorting 9
soyeux 9
spark@@ 9
sparring 9
speedo 9
spring 9
sprink@@ 9
spéci@@ 9
ssées 9
stacked 9
staff 9
stall 9
starbucks 9
steaks 9
ston@@ 9
stoop 9
strapped 9
stre@@ 9
stro 9
stro@@ 9
strolls 9
structures 9
stump 9
sui@@ 9
suivant 9
suivent 9
sure 9
surf@@ 9
surveillent 9
sécher 9
tacheté 9
tale 9
task 9
tau@@ 9
tem@@ 9
test 9
texto 9
than 9
ticket 9
tight 9
tiled 9
tips 9
tom@@ 9
tombent 9
ton 9
touri@@ 9
tourno@@ 9
transit 9
transpor@@ 9
trave@@ 9
treat 9
trench 9
tresses 9
tripod 9
tro 9
trombone 9
trouver 9
tted 9
tun@@ 9
two-@@ 9
upset 9
ur 9
uring 9
util@@ 9
v 9
val 9
vallée 9
vely 9
venir 9
verdoyant 9
verdoyante 9
veston 9
vieilles 9
vise 9
visi@@ 9
visibles 9
vite 9
voil@@ 9
vérifie 9
wait@@ 9
washington 9
weigh@@ 9
wheeler 9
wig 9
wind 9
wn@@ 9
writes 9
ya@@ 9
yo 9
ânes 9
èque 9
échauff@@ 9
écol@@ 9
épaisse 9
épouse 9
éventail 9
êt@@ 9
î@@ 9
ï@@ 9
abandoned 8
accep@@ 8
access@@ 8
accompagné 8
accrochant 8
accrochés 8
ach 8
acrobatic 8
acrobaties 8
activités 8
ades 8
admirant 8
adolescentes 8
ads 8
agenouille 8
agricul@@ 8
ai 8
aie 8
aient 8
alco@@ 8
am 8
amount 8
angels 8
anim@@ 8
antly 8
appelé 8
approchant 8
appuyée 8
archite@@ 8
aride 8
armo@@ 8
artisan@@ 8
artists 8
atique 8
attache 8
atteint 8
atterrir 8
ature 8
au-delà 8
aud@@ 8
autocht@@ 8
babies 8
bac@@ 8
balcon@@ 8
ballerines 8
bambou 8
banners 8
barbecu@@ 8
barbus 8
barefooted 8
bartender 8
bavar@@ 8
beads 8
because 8
bedroom 8
beiges 8
bermu@@ 8
bit@@ 8
blement 8
bloquer 8
boarder 8
bords 8
boston 8
bougie 8
boulan@@ 8
bour@@ 8
boxe 8
bridesmaids 8
brief@@ 8
brillantes 8
broad 8
broch@@ 8
brochure 8
brossant 8
bundle 8
buried 8
bush 8
bû@@ 8
cache 8
cadeaux 8
cahi@@ 8
calmes 8
camels 8
cameraman 8
campfire 8
candle 8
caniche 8
canoes 8
capit@@ 8
cardigan 8
carrier 8
cases 8
cass@@ 8
catcheur 8
cave 8
cerceaux 8
chage 8
champs 8
chat@@ 8
cheerleading 8
chement 8
cherchent 8
cherry 8
chic 8
chiff@@ 8
chil@@ 8
chirurgi@@ 8
chis@@ 8
chocolat 8
châle 8
ci 8
circus 8
citrouille 8
civ@@ 8
clos 8
cluttered 8
clôturé 8
coffre 8
coiffeur 8
collation 8
columns 8
commun 8
commun@@ 8
companion 8
completed 8
compris 8
conditions 8
conductor 8
confetti 8
confu@@ 8
congreg@@ 8
construit 8
consul@@ 8
contenu 8
contre@@ 8
contrer 8
convention 8
cookies 8
costum@@ 8
coupent 8
cow-boys 8
crashing 8
create 8
creusent 8
cries 8
croisées 8
crosse 8
crow@@ 8
ctant 8
cue@@ 8
cuisinent 8
câble 8
cés 8
darkened 8
daytime 8
deci@@ 8
deer 8
deere 8
deli 8
demoiselles 8
desc@@ 8
descen@@ 8
dessins 8
die 8
diffic@@ 8
directing 8
dirig@@ 8
disc 8
doesn 8
don 8
down@@ 8
downhill 8
drainage 8
draped 8
draws 8
dre 8
dribble 8
dunes 8
débar@@ 8
décolle 8
défen@@ 8
déguisée 8
déjeun@@ 8
déli@@ 8
démonstration 8
dépla@@ 8
détendant 8
earth 8
easel 8
effort 8
egg 8
employee 8
enceinte 8
ences 8
encouragent 8
endroits 8
ends 8
enfon@@ 8
enlever 8
enlève 8
enneig@@ 8
eries 8
eroles 8
escar@@ 8
esp@@ 8
espagnol 8
ess 8
essayent 8
establishment 8
estomac 8
ethnique 8
european 8
every@@ 8
exercice 8
expre@@ 8
extrémité 8
exécu@@ 8
f-@@ 8
fabri@@ 8
facial 8
farm@@ 8
fat 8
fatigué 8
favorite 8
feux 8
ffs 8
fields 8
filmant 8
filmer 8
filming 8
finger@@ 8
fish@@ 8
fitness 8
flambo@@ 8
flanelle 8
flannel 8
flânent 8
foam 8
followed 8
force 8
forested 8
former 8
fortune 8
fountains 8
fourgonnette 8
fraîche 8
frisé 8
gan 8
garde 8
garde-@@ 8
garder 8
gazonné 8
ge-@@ 8
geish@@ 8
gel@@ 8
genouillères 8
gesture 8
gie 8
glo@@ 8
gor@@ 8
gos 8
gout 8
gown 8
goûter 8
graffiti@@ 8
grimpent 8
guerre 8
guitares 8
had 8
hamac 8
hammering 8
hammock 8
hardwood 8
hawaiian 8
hero 8
hit@@ 8
hom@@ 8
homemade 8
hon@@ 8
hula-@@ 8
human 8
husky 8
hydrant 8
ial 8
illing 8
im 8
incon@@ 8
india 8
industrial 8
inent 8
ingrédients 8
inspectant 8
instal@@ 8
inée 8
ior 8
iroquoise 8
island 8
itant 8
itation 8
itive 8
ivre 8
izing 8
jazz 8
jets 8
joy@@ 8
judges 8
juges 8
jum@@ 8
ka 8
kaya@@ 8
kel 8
ker@@ 8
kickboxing 8
kilts 8
kisses 8
kitchenaid 8
knee-@@ 8
labeled 8
lable 8
laboratory 8
lama 8
lanternes 8
lanterns 8
lapin 8
lavent 8
lins 8
lively 8
loaded 8
long@@ 8
loo@@ 8
looked 8
lowing 8
luttent 8
lux@@ 8
ly-@@ 8
lèche 8
mai@@ 8
maj@@ 8
mani@@ 8
manière 8
mant 8
marchand 8
marin 8
marmite 8
maré@@ 8
mascara 8
masks 8
mature 8
mau@@ 8
may 8
maî@@ 8
medium 8
melon 8
menant 8
mess 8
message 8
messieurs 8
mic 8
mickey 8
midst 8
mie 8
mix 8
monk 8
montagneux 8
moyenne 8
much 8
murale 8
murky 8
muscular 8
muselière 8
musta@@ 8
mutuellement 8
mâche 8
mène 8
médiév@@ 8
nails 8
nap@@ 8
napping 8
navigates 8
ner@@ 8
nes@@ 8
neuf 8
noix 8
notebook 8
nourrit 8
obscure 8
occupés 8
officielle 8
olympique 8
ombra@@ 8
ongles 8
oni@@ 8
ope 8
ordin@@ 8
ore@@ 8
oreiller 8
orné 8
oun@@ 8
ouverts 8
pack@@ 8
package 8
packed 8
packing 8
pagayant 8
pages 8
pai@@ 8
palmier 8
passager 8
patiemment 8
patinent 8
patron 8
pauvre 8
pay 8
peac@@ 8
peers 8
pellet@@ 8
peloton 8
peur 8
phin 8
photographers 8
photographier 8
ping-pong 8
pirates 8
pizzeria 8
plain 8
plantant 8
plaquer 8
plongeurs 8
plume 8
pocket 8
polos 8
pop 8
pourchassé 8
pours 8
poussent 8
poussiéreuse 8
ppy 8
prochain 8
produ@@ 8
product 8
projector 8
protect 8
protège 8
prun@@ 8
pré 8
présen@@ 8
présent@@ 8
pt 8
public@@ 8
pul@@ 8
punching 8
purses 8
puzzle 8
pâtiss@@ 8
péri@@ 8
quel 8
quiet 8
quilles 8
quitte 8
rab@@ 8
raide 8
raining 8
rapide 8
reaux 8
redhead 8
religious 8
remo@@ 8
retourné 8
retrie@@ 8
return 8
reur 8
rise 8
riz 8
rière 8
roller-@@ 8
rond 8
roulé 8
rug 8
rurale 8
réception 8
répète 8
sailboat 8
saisi@@ 8
salue 8
saluent 8
sat@@ 8
savon 8
say 8
scrubs 8
sear@@ 8
sel 8
sement 8
seniors 8
sens 8
serveuse 8
services 8
seurs 8
shadow 8
shaggy 8
shelf 8
shine 8
signes 8
signing 8
sils 8
sim@@ 8
singe 8
située 8
skiant 8
skills 8
skim@@ 8
skinny 8
slee@@ 8
sme 8
solo 8
somewhere 8
souriants 8
spe@@ 8
speci@@ 8
spect@@ 8
speeding 8
spiderman 8
spins 8
splashed 8
spot 8
spotlight 8
sprays 8
squeezing 8
ssions 8
stationnement 8
statues 8
sten@@ 8
stique 8
stream@@ 8
stretches 8
stringed 8
stripe 8
strolling 8
stry 8
stuck 8
stuff 8
styli@@ 8
substance 8
suit@@ 8
sumo 8
surgical 8
survêtement 8
surélevée 8
sy 8
synchronized 8
sèche 8
tabliers 8
tackled 8
tailler 8
tante 8
taxis 8
teammates 8
technolo@@ 8
tendue 8
tered 8
thered 8
thou@@ 8
ths 8
tic 8
tiers 8
tige 8
tique 8
tiste 8
titude 8
tomates 8
too 8
toothbrush 8
touriste 8
trafic 8
transporte 8
trav@@ 8
travel 8
traînant 8
trépied 8
tug-of-war 8
tuxe@@ 8
twister 8
tying 8
tâche 8
um 8
underground 8
ung 8
unhappy 8
unicef 8
universitaire 8
unusual 8
urgence 8
ut 8
uts 8
variety 8
vegas 8
vending 8
vette 8
victory 8
villa@@ 8
ving 8
vintage 8
violon@@ 8
visière 8
vitres 8
waist 8
waiter 8
war 8
warehouse 8
waterskiing 8
wheeled 8
when 8
wil@@ 8
win 8
yamaha 8
ym@@ 8
yo@@ 8
zer 8
zi@@ 8
èles 8
écart 8
écla@@ 8
émeute 8
éponge 8
établissement 8
étal 8
étal@@ 8
étreignant 8
étreint 8
étroit 8
étudi@@ 8
-looking 7
-sized 7
20@@ 7
50 7
aband@@ 7
accompanied 7
acrobat@@ 7
activities 7
adorned 7
advertisements 7
affe@@ 7
afin 7
agit@@ 7
agri@@ 7
aid 7
ainsi 7
alcool 7
alimentaires 7
all@@ 7
allu@@ 7
alpinistes 7
ambu@@ 7
amid 7
amies 7
amuser 7
amér@@ 7
anneau 7
antique 7
applaudit 7
apprenant 7
aquatique 7
ari@@ 7
arrangement 7
arrose 7
arrow 7
arrêté 7
artisanat 7
ascension 7
ateurs 7
athlétisme 7
atifs 7
atrice 7
attelage 7
auto 7
autoroute 7
aven@@ 7
aving 7
await 7
aéro@@ 7
backseat 7
baisse 7
balais 7
bambin 7
bananas 7
bananes 7
banli@@ 7
barb@@ 7
barely 7
barque 7
barrels 7
bataille 7
battle 7
bay 7
beat 7
beating 7
beers 7
begin 7
bend 7
berge 7
bicyclette 7
bie 7
bits 7
bleu@@ 7
blot@@ 7
blower 7
blurred 7
boogie 7
boule@@ 7
bounds 7
bows 7
bra 7
brass@@ 7
bres 7
brit@@ 7
brum@@ 7
brunes 7
bud@@ 7
buggy 7
bum 7
bund@@ 7
bunny 7
business@@ 7
bâche 7
cales 7
cali@@ 7
call 7
cally 7
cannon 7
canoës 7
carav@@ 7
cargo 7
carre@@ 7
casting 7
cathédrale 7
cation 7
cats 7
cau@@ 7
caucasi@@ 7
cause 7
celebr@@ 7
cellulaire 7
cess 7
challenge 7
chandail 7
character 7
characters 7
chargeant 7
chargé 7
chased 7
cheerleader 7
chevalet 7
chevau@@ 7
chin 7
chinatown 7
chon 7
cigare 7
circulaire 7
clair@@ 7
class@@ 7
classique 7
clu@@ 7
collègue 7
collègues 7
colorfully 7
combattant 7
compet@@ 7
completing 7
complex 7
composée 7
con 7
conducting 7
constru@@ 7
construisent 7
conte@@ 7
contest 7
contro@@ 7
cotton 7
coud 7
courbé 7
coussin 7
couver@@ 7
couvercle 7
cover@@ 7
cowgirl 7
coéquipiers 7
cram@@ 7
craw@@ 7
crawls 7
crops 7
crosscountry 7
création 7
créer 7
crê@@ 7
cueille 7
cuisiniers 7
cupcake 7
cupcakes 7
cée 7
célèbre 7
daily 7
dale 7
dan 7
day@@ 7
ddles 7
dec@@ 7
defender 7
demande 7
demi-@@ 7
demonstration 7
designed 7
desks 7
dessiner 7
deurs 7
dien 7
dinosaur 7
dinosaure 7
direct@@ 7
discuss 7
dle 7
dly 7
doctors 7
dolls 7
donnent 7
doo 7
dotted 7
drap 7
dryer 7
drying 7
dum@@ 7
dyed 7
déchiré 7
défenseur 7
défilant 7
dés 7
désarç@@ 7
dî@@ 7
ef 7
efs 7
elder 7
electri@@ 7
eled 7
elementary 7
em 7
emball@@ 7
emment 7
enclume 7
encombrée 7
endre 7
engag@@ 7
enlace 7
ennes 7
enregistre@@ 7
enseignante 7
entertain 7
enti@@ 7
entourant 7
entourent 7
entourées 7
entrent 7
entée 7
envelop@@ 7
environment 7
ese 7
esse 7
essu@@ 7
eté 7
europé@@ 7
exer@@ 7
exercices 7
exercising 7
exiting 7
explosion 7
expéri@@ 7
fabrique 7
face-@@ 7
fal@@ 7
fan@@ 7
fati@@ 7
feather 7
fedora 7
fellow 7
fermier 7
fet@@ 7
fetch 7
feutre 7
ff 7
ffe 7
fiel@@ 7
figur@@ 7
fill 7
find 7
fireworks 7
fit 7
flammes 7
fle 7
flock 7
flottent 7
fog 7
foggy 7
fonctionner 7
fontaines 7
fork 7
framed 7
franchi@@ 7
fresh@@ 7
frire 7
frustr@@ 7
frying 7
fuzzy 7
fying 7
fémin@@ 7
g-@@ 7
galets 7
gaphone 7
gay 7
ggling 7
gon 7
gonflables 7
grattant 7
gravissent 7
greyhounds 7
grills 7
grin@@ 7
grinds 7
grotte 7
gry 7
gy 7
gés 7
hamburgers 7
harbor 7
haut-de-forme 7
heal@@ 7
hear@@ 7
herbeuse 7
hispanic 7
hoe 7
holi@@ 7
hoo@@ 7
hook 7
husband 7
hy@@ 7
i-@@ 7
ically 7
iff@@ 7
igh 7
ignant 7
ignent 7
illeux 7
illons 7
illuminated 7
iment 7
ina 7
inachev@@ 7
inclu@@ 7
inde 7
infirmière 7
inféri@@ 7
inging 7
ingly 7
ingredients 7
inhabitu@@ 7
ini@@ 7
inspect@@ 7
installe 7
interagissent 7
intri@@ 7
issent 7
isson 7
isées 7
ize 7
jam@@ 7
javelot 7
jet@@ 7
joh@@ 7
kar@@ 7
kart 7
ken@@ 7
kick@@ 7
laid 7
lands 7
laquelle 7
lateur 7
latin 7
latin@@ 7
legged 7
leopard 7
less 7
level 7
levée 7
licking 7
lier 7
life@@ 7
lime 7
lining 7
littoral 7
liv@@ 7
lière 7
locomoti@@ 7
los 7
lui-même 7
lumin@@ 7
lumineux 7
lush 7
lutte 7
là 7
lég@@ 7
mac 7
magnifiques 7
mans 7
manœu@@ 7
maquette 7
maquille 7
marble 7
mariés 7
marked 7
marker 7
mas 7
mascot 7
mascotte 7
masqu@@ 7
masques 7
mati@@ 7
mauv@@ 7
maybe 7
mcdonald&apos; 7
meadow 7
measuring 7
mec 7
medieval 7
menu@@ 7
mers 7
meu@@ 7
mexicain 7
mique 7
mitaines 7
mitt 7
mobylette 7
modèle 7
monitors 7
monster 7
mort 7
motif 7
mouillée 7
mountainous 7
mounted 7
mouths 7
mowing 7
muret 7
musc@@ 7
musclé 7
musi@@ 7
musul@@ 7
mécan@@ 7
mélan@@ 7
mû@@ 7
named 7
nat@@ 7
nattes 7
natu@@ 7
necklaces 7
neig@@ 7
neuse 7
newlywed 7
niche 7
nine 7
niveau 7
nommé 7
nude 7
numérique 7
nun 7
observer 7
occupent 7
officier 7
oil 7
oing 7
oires 7
oles 7
olo@@ 7
one@@ 7
ong@@ 7
onze 7
oppos@@ 7
opposé 7
ordering 7
oti@@ 7
ound 7
ouvrir 7
ov@@ 7
own 7
paci@@ 7
padd@@ 7
paga@@ 7
pagaient 7
paintball 7
panoram@@ 7
pans 7
parce 7
partici@@ 7
patauge 7
patins 7
pea@@ 7
peaks 7
pee@@ 7
pelleteuse 7
peluche@@ 7
personnages 7
peu@@ 7
peuplé 7
pi 7
picket 7
pilier 7
pinceau 7
plais@@ 7
plateforme 7
plea@@ 7
pliantes 7
pneum@@ 7
pointed 7
policemen 7
poney 7
pony 7
poodle 7
pops 7
porté 7
possession 7
poudre 7
poutres 7
poêle 7
pra@@ 7
prati@@ 7
pratique 7
prepared 7
presents 7
prim@@ 7
prints 7
prises 7
profession@@ 7
professionnels 7
propane 7
propriéta@@ 7
prête 7
puppet 7
purchase 7
pyramid 7
pédal@@ 7
pêchent 7
q 7
q@@ 7
quittant 7
rack 7
rafts 7
railings 7
rain@@ 7
rallye 7
rassemblée 7
ravin 7
reception 7
relax@@ 7
remuant 7
rencontre 7
renver@@ 7
renversé 7
resort 7
retire 7
rin@@ 7
rir 7
ritu@@ 7
roca@@ 7
rocheuses 7
roll 7
roller@@ 7
rollerskates 7
rolls 7
rugs 7
rustic 7
rées 7
réfléchissants 7
réparations 7
sail 7
sang 7
sca@@ 7
school@@ 7
scienti@@ 7
scientist 7
scope 7
seafood 7
seating 7
senior 7
separate 7
serrent 7
seu@@ 7
sexy 7
shake 7
shawl 7
shiel@@ 7
shift 7
shower 7
sidelines 7
sig@@ 7
silhouetted 7
skate-board 7
sked 7
skydiving 7
skyline 7
sl@@ 7
slacks 7
sleeves 7
snacks 7
soa@@ 7
soigneusement 7
sold 7
some@@ 7
sortent 7
soulevant 7
sourcils 7
souriantes 7
spectacu@@ 7
spectateur 7
speeds 7
sph@@ 7
squats 7
squir@@ 7
ssive 7
starring 7
stars 7
stiques 7
striking 7
strings 7
sty 7
submer@@ 7
sucette 7
suivi 7
sunbathing 7
supermarket 7
suppor@@ 7
supporters 7
surfers 7
swan 7
sy@@ 7
syn@@ 7
séance 7
tableaux 7
taches 7
tack@@ 7
tail@@ 7
taine 7
tarp 7
tatouée 7
terminé 7
thick 7
though 7
thy 7
tier 7
tiger 7
tigre 7
tive 7
toe 7
topless 7
touchent 7
toujours 7
tourn@@ 7
tournage 7
tournant 7
tracksuit 7
travels 7
treadmill 7
tress 7
trom@@ 7
troncs 7
trophy 7
trophée 7
trotting 7
trouble 7
tt 7
tter 7
tuni@@ 7
tured 7
turkey 7
tutus 7
typing 7
téléphones 7
uma 7
universit@@ 7
university 7
upwards 7
uri@@ 7
uti@@ 7
vacuum 7
vacuuming 7
vaul@@ 7
verdure 7
vering 7
versant 7
vest@@ 7
vibrant 7
videota@@ 7
visit@@ 7
visor 7
vitrines 7
voirie 7
volley@@ 7
volunte@@ 7
voyag@@ 7
vée 7
végétation 7
vérifiant 7
warming 7
wash 7
watermelons 7
welcome 7
were 7
wilderness 7
wood@@ 7
woodland 7
workman 7
wrestlers 7
written 7
year 7
zard 7
âges 7
âtre 7
ça 7
ébroue 7
écar@@ 7
échant@@ 7
échap@@ 7
écharpes 7
écrasant 7
éjecté 7
éla@@ 7
éle@@ 7
électriques 7
élég@@ 7
élévateur 7
éparp@@ 7
époque 7
éro@@ 7
éros 7
étage 7
étagère 7
était 7
éteindre 7
étendu 7
étudiante 7
ête 7
ôt 7
-ball 6
12 6
acci@@ 6
accompag@@ 6
af@@ 6
affron@@ 6
africa@@ 6
ances 6
applaudi@@ 6
appu@@ 6
are@@ 6
argent@@ 6
ath 6
attra@@ 6
audi@@ 6
autom@@ 6
aéri@@ 6
bag@@ 6
basket@@ 6
bass@@ 6
bby 6
bee 6
beg@@ 6
bing 6
bir@@ 6
blu@@ 6
bm@@ 6
bor 6
bull@@ 6
by@@ 6
bâ@@ 6
cakes 6
camp@@ 6
campement 6
camping-@@ 6
canon 6
carou@@ 6
cart@@ 6
cash 6
cathedral 6
ceremonial 6
chapiteau 6
charcu@@ 6
chats 6
chauff@@ 6
checked 6
checkout 6
chirurgiens 6
châ@@ 6
cierge 6
circu@@ 6
ciseaux 6
citizens 6
citrou@@ 6
ck-@@ 6
clap 6
cler@@ 6
climbers 6
clothed 6
clutching 6
coast 6
cock@@ 6
coco 6
cocon@@ 6
colliers 6
colonne 6
colorie 6
column 6
combres 6
comman@@ 6
compagnie 6
competit@@ 6
completely 6
complexe 6
complè@@ 6
concentré 6
coney 6
confettis 6
congregate 6
connected 6
consi@@ 6
constructed 6
construite 6
convenience 6
corne 6
cost@@ 6
coupe-vent 6
craft@@ 6
crafting 6
crash 6
crate 6
creates 6
crest 6
criant 6
crocodile 6
crocs 6
crou@@ 6
crown 6
cy 6
céré@@ 6
damaged 6
dark@@ 6
dation 6
dded 6
dem@@ 6
demand@@ 6
dement 6
dered 6
descente 6
deserted 6
designer 6
dessinée 6
deur 6
devan@@ 6
devices 6
dex 6
dgers 6
différ@@ 6
direct 6
dispositif 6
dojo 6
domino@@ 6
dossard 6
dots 6
dres 6
dressing 6
drome 6
dropping 6
drum@@ 6
due 6
dump 6
dunk 6
dy@@ 6
début 6
déchargeant 6
décorée 6
déguisées 6
déla@@ 6
détritus 6
effectuer 6
eks 6
elaborate 6
eles 6
elevated 6
emmitouflé 6
emmène 6
employ@@ 6
encadr@@ 6
encom@@ 6
encore 6
ened 6
enflam@@ 6
enflammés 6
engage 6
enla@@ 6
enlaçant 6
enseignant 6
enseignes 6
entaire 6
ental 6
entassés 6
entation 6
entièrement 6
entral 6
entraî@@ 6
envoyant 6
ep@@ 6
er-@@ 6
essuie 6
ethniques 6
eu 6
eue 6
eure 6
evil 6
examiner 6
exce@@ 6
excitedly 6
exhib@@ 6
expanse 6
expose 6
exposées 6
exposés 6
expressions 6
extra@@ 6
ey@@ 6
fabriquant 6
fantaisie 6
fashi@@ 6
fea@@ 6
feathered 6
features 6
ffy 6
fisher@@ 6
flames 6
flant 6
flat 6
flexi@@ 6
floors 6
flor@@ 6
floue 6
flowery 6
fluore@@ 6
focus 6
follow 6
fonctionne 6
forestière 6
formations 6
formes 6
fou 6
foulards 6
franç@@ 6
frappé 6
friandise 6
frog 6
fts 6
furi@@ 6
fy 6
fée 6
fér@@ 6
gau@@ 6
gaz 6
gerie 6
gerly 6
gger 6
ggle 6
gi 6
girl@@ 6
gling 6
gloved 6
goatee 6
gowns 6
grasping 6
grat@@ 6
gratuits 6
grillage 6
grimper 6
grès 6
guichet 6
gué 6
handbag 6
handheld 6
harvesting 6
haw@@ 6
hawaïenne 6
hearts 6
heavyset 6
historique 6
hollister 6
horizon@@ 6
hors-@@ 6
hour 6
hunched 6
hutte 6
ici@@ 6
ide 6
identical 6
idi@@ 6
ige@@ 6
ight 6
ility 6
illed 6
illo@@ 6
impliqués 6
imposante 6
impro@@ 6
incluant 6
index 6
industriel 6
ine@@ 6
inf@@ 6
infla@@ 6
informations 6
inning 6
inscriptions 6
installée 6
intensément 6
internet 6
interro@@ 6
intes 6
intitul@@ 6
invisible 6
isant 6
ised 6
ison 6
itaires 6
itement 6
jave@@ 6
jeter 6
jewish 6
journal@@ 6
jumpsuits 6
kara@@ 6
ken 6
ket@@ 6
key 6
key@@ 6
kicked 6
kil@@ 6
kiosk 6
kitty 6
knitting 6
labor@@ 6
labrador 6
lait 6
lakers 6
lanc@@ 6
lanes 6
lante 6
lap@@ 6
lapins 6
latex 6
lavabo 6
lave@@ 6
law 6
lego 6
lei 6
length 6
lent@@ 6
les@@ 6
levées 6
liberté 6
licks 6
lipstick 6
liquor 6
locale 6
loupe 6
lour@@ 6
lovely 6
lower 6
lutteurs 6
lyc@@ 6
lé 6
léopard 6
lés 6
mage 6
magni@@ 6
maine 6
manipulant 6
mannequins 6
manuel 6
maquillé 6
mariachi 6
marins 6
marque 6
masculine 6
massi@@ 6
mates 6
mcdonalds 6
melons 6
memorial 6
menton 6
menus 6
merry-go-round 6
meuble 6
mi-@@ 6
mignon 6
minces 6
mis@@ 6
mise 6
missing 6
mittens 6
mob@@ 6
mobil@@ 6
mode 6
montgolfières 6
mordre 6
mot@@ 6
mots 6
mouettes 6
moun@@ 6
mountaintop 6
mout@@ 6
muslim 6
médecins 6
médicaux 6
mélangeant 6
mê@@ 6
nageuse 6
navig@@ 6
navigable 6
nearly 6
new-york 6
nightclub 6
ninj@@ 6
nintendo 6
nocturne 6
nom 6
nor@@ 6
noses 6
nurse 6
o-@@ 6
observ@@ 6
occasion 6
occur@@ 6
oche 6
odle 6
off-@@ 6
off-camera 6
officiers 6
oh 6
ohio 6
ollie 6
ombres 6
oming 6
onary 6
ond 6
one-@@ 6
onner 6
onnes 6
oo@@ 6
open-@@ 6
oper 6
operated 6
ora@@ 6
orangé 6
ordre 6
ore 6
org@@ 6
ouver@@ 6
overlook 6
oxford 6
paisible 6
panda 6
paper@@ 6
parallel 6
paressent 6
parka 6
partage 6
patrio@@ 6
patte 6
pau@@ 6
pauses 6
pel@@ 6
pelle@@ 6
pelles 6
pelling 6
perché 6
perple@@ 6
personnage 6
personnels 6
pets 6
peurs 6
pharmac@@ 6
pid@@ 6
piercings 6
pillar 6
pilo@@ 6
pipes 6
piqu@@ 6
pique 6
pistes 6
pitching 6
pittoresque 6
plank 6
plat@@ 6
pleut 6
plongeon 6
plonger 6
poils 6
poker 6
political 6
poncho 6
ponchos 6
popu@@ 6
porte-documents 6
porteur 6
post-@@ 6
potier 6
poulets 6
poun@@ 6
poupées 6
pousser 6
powerpoint 6
ppers 6
priant 6
pride 6
prient 6
principalement 6
pro 6
probably 6
prochaine 6
professor 6
profondes 6
progra@@ 6
progress 6
projecteurs 6
projection 6
propos 6
proposant 6
propped 6
propre 6
protè@@ 6
provenant 6
prêtre 6
ption 6
publicités 6
pushed 6
pyramide 6
pédalant 6
pés 6
pê@@ 6
quar@@ 6
quoti@@ 6
quée 6
rac@@ 6
radeaux 6
rag 6
raise 6
raking 6
ramassent 6
ramasser 6
rampes 6
rappro@@ 6
rasoir 6
rati@@ 6
ravine 6
razor 6
rea@@ 6
recevant 6
recor@@ 6
recouvrant 6
rectangu@@ 6
red-@@ 6
refer@@ 6
regard@@ 6
regroupés 6
relais 6
relaxes 6
relay 6
reli@@ 6
remettre 6
remplissent 6
reni@@ 6
renifle 6
rentrer 6
repor@@ 6
respecti@@ 6
respon@@ 6
ressemblent 6
revers 6
ribbons 6
rimmed 6
riverbank 6
roche 6
rolled 6
rondes 6
rouille 6
rouillée 6
rubans 6
rubs 6
rush 6
rustique 6
rusty 6
ryth@@ 6
réconfor@@ 6
réfléchi@@ 6
répètent 6
sages 6
saires 6
sample 6
sang@@ 6
sar@@ 6
sari 6
saucisses 6
sauna 6
sauvet@@ 6
scaling 6
scape 6
scattered 6
scent 6
scissors 6
scooping 6
scrat@@ 6
scri@@ 6
seagulls 6
secouri@@ 6
secours 6
seesa@@ 6
semi 6
serré 6
serviettes 6
shampo@@ 6
shingles 6
sho@@ 6
shooter 6
shorter 6
shouting 6
siff@@ 6
sign@@ 6
silhouettes 6
similaire 6
simultan@@ 6
situation 6
skateboarders 6
skull 6
sky-@@ 6
sla@@ 6
slal@@ 6
sleep 6
sleeve 6
slopes 6
smash 6
smoo@@ 6
snap 6
snowball 6
soars 6
socializing 6
sombrero 6
somebody 6
sortes 6
souder 6
soudure 6
soufflant 6
souffleur 6
soulever 6
soup 6
souple 6
south 6
soutien-gorge 6
souvenirs 6
spa 6
spatula 6
spatule 6
special 6
spla@@ 6
spo@@ 6
spots 6
squad 6
ssante 6
st. 6
stair 6
stal@@ 6
stent 6
ster@@ 6
stirring 6
stock 6
strea@@ 6
stretched 6
stride 6
strike 6
strollers 6
stronau@@ 6
stunts 6
suc@@ 6
sueur 6
sundress 6
sunshine 6
sup@@ 6
surfeurs 6
surge@@ 6
surplombe 6
suspendus 6
swords 6
synchronisée 6
system 6
sèche-@@ 6
sœur 6
tablecloth 6
taillant 6
take@@ 6
taper 6
tatoueur 6
tea@@ 6
techn@@ 6
teddy 6
tee-shirt 6
tends 6
tenter 6
terminal 6
terminer 6
texting 6
ther 6
thor@@ 6
thoscope 6
those 6
thre@@ 6
tickets 6
tim 6
tisse 6
tly 6
toast 6
toir 6
toirs 6
tomat@@ 6
tomatoes 6
toms 6
tons 6
tor 6
tort@@ 6
tos 6
tout-@@ 6
tow 6
toyota 6
trace 6
tree-lined 6
trench-coat 6
triangle 6
trib@@ 6
tribu 6
tricycles 6
trio 6
trop 6
tropicale 6
trébu@@ 6
tu 6
tumbling 6
tumultueuses 6
turbans 6
tuyaux 6
typique 6
tâches 6
télésiège 6
téri@@ 6
umin@@ 6
ump 6
union 6
unloading 6
upright 6
urant 6
urs 6
used 6
ute 6
vaches 6
vage 6
valises 6
veget@@ 6
vend@@ 6
vention 6
vernis 6
vides 6
vietnam@@ 6
vités 6
voc@@ 6
voix 6
vol. 6
volants 6
vraiment 6
vé@@ 6
wake@@ 6
walkers 6
walkie 6
warm@@ 6
watering 6
waterside 6
waterskier 6
weapon 6
weight 6
well-dressed 6
western 6
wet@@ 6
wheelchairs 6
whis@@ 6
whistle 6
whole 6
wii 6
wineglasses 6
wit@@ 6
within 6
words 6
woven 6
wra@@ 6
wraps 6
x-@@ 6
yst@@ 6
za@@ 6
zing 6
zombie 6
zombies 6
zz@@ 6
zé@@ 6
çon 6
èche 6
èle 6
èrement 6
éclair@@ 6
éclairages 6
écr@@ 6
élastique 6
éloignent 6
élè@@ 6
élégant 6
éléphants 6
ément 6
épic@@ 6
épées 6
étalage 6
état 6
états-unis 6
étend 6
étirant 6
étoffes 6
étoiles 6
étu@@ 6
êtant 6
ôles 6
ûte 6
œurs 6
-covered 5
accompan@@ 5
acti@@ 5
adm@@ 5
adver@@ 5
agenou@@ 5
alls 5
americ@@ 5
ang 5
appla@@ 5
arrang@@ 5
arriè@@ 5
asphal@@ 5
attentiv@@ 5
audit@@ 5
banan@@ 5
blan@@ 5
blur@@ 5
bom@@ 5
bre 5
brou@@ 5
camer@@ 5
celu@@ 5
cep@@ 5
che-@@ 5
cheer@@ 5
chop@@ 5
ckets 5
classi@@ 5
comple@@ 5
contra@@ 5
cor 5
couv@@ 5
couvre-@@ 5
crav@@ 5
cture 5
cé@@ 5
de-@@ 5
dins 5
distri@@ 5
diti@@ 5
donn@@ 5
elev@@ 5
ell@@ 5
enou@@ 5
ep 5
ey 5
fai@@ 5
faç@@ 5
fe 5
fic 5
fiques 5
friand@@ 5
gar 5
gaz@@ 5
ggles 5
ghtly 5
gre 5
gré@@ 5
gymna@@ 5
gère 5
hai@@ 5
high@@ 5
hill@@ 5
hé@@ 5
hôte@@ 5
iage 5
igne 5
illée 5
impri@@ 5
inform@@ 5
int@@ 5
inten@@ 5
intere@@ 5
irie 5
isation 5
istes 5
isée 5
ities 5
jap@@ 5
jewel@@ 5
kimon@@ 5
kin 5
kitesur@@ 5
l-@@ 5
lass@@ 5
ld 5
lean@@ 5
lets 5
ligh@@ 5
loa@@ 5
lows 5
ly@@ 5
mach@@ 5
mail@@ 5
make@@ 5
manife@@ 5
mate 5
middle-@@ 5
mirro@@ 5
mmed 5
mo 5
mom@@ 5
mp@@ 5
mur@@ 5
més 5
na 5
nag@@ 5
nage@@ 5
nam@@ 5
navigu@@ 5
ney 5
nie 5
nique 5
nière 5
nourri@@ 5
of@@ 5
om 5
ombrel@@ 5
onnette 5
oth 5
ox@@ 5
passer@@ 5
pedestri@@ 5
phants 5
pies 5
pig@@ 5
pistol@@ 5
pon 5
pop@@ 5
poê@@ 5
professionn@@ 5
proté@@ 5
pun@@ 5
py@@ 5
pér@@ 5
quettes 5
quille 5
rail@@ 5
randonne@@ 5
rang@@ 5
rasse 5
read@@ 5
rece@@ 5
rempli@@ 5
restaur@@ 5
retourn@@ 5
rette 5
rist@@ 5
ro 5
ron 5
scul@@ 5
session 5
shado@@ 5
simi@@ 5
sk 5
sks 5
sma@@ 5
span@@ 5
spor@@ 5
sque 5
sson 5
stants 5
star@@ 5
stle 5
store@@ 5
stret@@ 5
strum@@ 5
surplom@@ 5
surroun@@ 5
suréle@@ 5
suspen@@ 5
swim@@ 5
ta 5
tabou@@ 5
tat@@ 5
te-@@ 5
tement 5
temp@@ 5
them@@ 5
thro@@ 5
tigh@@ 5
tit 5
tiv@@ 5
tronç@@ 5
té@@ 5
tél@@ 5
ule 5
under@@ 5
ut@@ 5
vel 5
walk@@ 5
wards 5
woo@@ 5
xy@@ 5
youn@@ 5
ènent 5
électri@@ 5
énor@@ 5
équi@@ 5
% 4
,@@ 4
acks 4
acro@@ 4
acrobati@@ 4
aines 4
align@@ 4
alim@@ 4
allem@@ 4
allow 4
ande 4
aqu@@ 4
arbit@@ 4
art@@ 4
artif@@ 4
asi@@ 4
ater 4
atte@@ 4
au-@@ 4
bagu@@ 4
bal 4
baller@@ 4
bandan@@ 4
bant 4
bean@@ 4
bear@@ 4
bijou@@ 4
bizar@@ 4
blon@@ 4
bloo@@ 4
boar@@ 4
boo@@ 4
boul@@ 4
brant 4
bret@@ 4
brée 4
buff@@ 4
cade 4
cana@@ 4
canadi@@ 4
cand@@ 4
cellu@@ 4
ch-@@ 4
chac@@ 4
chic@@ 4
chino@@ 4
cho 4
chor@@ 4
chè@@ 4
clar@@ 4
clean@@ 4
clés 4
cob@@ 4
commen@@ 4
compag@@ 4
compe@@ 4
concer@@ 4
conditi@@ 4
confor@@ 4
conven@@ 4
couss@@ 4
cray@@ 4
ctors 4
célè@@ 4
cô@@ 4
ddy 4
deau 4
desser@@ 4
dig@@ 4
dim@@ 4
din 4
dings 4
dispu@@ 4
dor 4
drop 4
dure 4
déser@@ 4
ebr@@ 4
eil 4
ek 4
electron@@ 4
ellement 4
ena 4
endent 4
enjo@@ 4
ennent 4
enregi@@ 4
ensole@@ 4
equip@@ 4
eria 4
erial 4
esa@@ 4
escal@@ 4
eting 4
fig@@ 4
fighter 4
fir@@ 4
flam@@ 4
flé 4
fonc@@ 4
ft 4
fur@@ 4
ga 4
gag@@ 4
gage 4
gard@@ 4
gh 4
ghters 4
gnes 4
goo@@ 4
goû@@ 4
grim@@ 4
grimac@@ 4
guer@@ 4
gueu@@ 4
hambur@@ 4
haut-@@ 4
hawaï@@ 4
hawk 4
horse@@ 4
ids 4
ige 4
illage 4
ima@@ 4
imm@@ 4
impliqu@@ 4
impre@@ 4
inant 4
ington 4
ird 4
isc@@ 4
isier 4
itting 4
ités 4
ix 4
jail@@ 4
jar@@ 4
jer@@ 4
jun@@ 4
lars 4
lear@@ 4
lev@@ 4
liber@@ 4
long-@@ 4
lons 4
lè@@ 4
légu@@ 4
manipu@@ 4
march@@ 4
mart 4
mate@@ 4
mc@@ 4
mea@@ 4
mid@@ 4
miro@@ 4
monit@@ 4
montagne@@ 4
montr@@ 4
mounta@@ 4
muzz@@ 4
neck@@ 4
nel 4
neu@@ 4
news@@ 4
nouve@@ 4
nur@@ 4
nœu@@ 4
oir 4
oli@@ 4
oran@@ 4
ota 4
pain@@ 4
participat@@ 4
pelo@@ 4
peop@@ 4
perru@@ 4
pher@@ 4
phones 4
photo@@ 4
piè@@ 4
plom@@ 4
plon@@ 4
poids 4
pos 4
possi@@ 4
pourchass@@ 4
prepar@@ 4
profon@@ 4
proxim@@ 4
préci@@ 4
rais@@ 4
rambar@@ 4
rand@@ 4
rassembl@@ 4
rav@@ 4
rect@@ 4
regrou@@ 4
remor@@ 4
reç@@ 4
rollerbla@@ 4
rug@@ 4
réfléchiss@@ 4
répar@@ 4
sai@@ 4
sav@@ 4
savour@@ 4
seagul@@ 4
secon@@ 4
self 4
sent@@ 4
separ@@ 4
short-@@ 4
sine 4
skinned 4
sky@@ 4
sniff@@ 4
spea@@ 4
ssing 4
ssy 4
stair@@ 4
ston 4
sum@@ 4
swa@@ 4
sweat-@@ 4
synchron@@ 4
tend@@ 4
ther@@ 4
thé@@ 4
tine 4
tomb@@ 4
traditionn@@ 4
trol@@ 4
trottin@@ 4
tuellement 4
twi@@ 4
und 4
urg@@ 4
vag@@ 4
verdoy@@ 4
vet@@ 4
vice 4
vir@@ 4
vérifi@@ 4
wat@@ 4
wns 4
writ@@ 4
xi@@ 4
ye 4
ège 4
ébrou@@ 4
échi@@ 4
écou@@ 4
écu@@ 4
égli@@ 4
élév@@ 4
éte@@ 4
éten@@ 4
év@@ 4
ôle 4
-po@@ 3
ack@@ 3
adul@@ 3
aga@@ 3
age@@ 3
aison 3
alie 3
ament 3
anda 3
arring 3
athléti@@ 3
aves 3
backp@@ 3
balanç@@ 3
bam@@ 3
bati@@ 3
beauti@@ 3
beig@@ 3
bicyc@@ 3
bracel@@ 3
brand@@ 3
brow@@ 3
brown@@ 3
bucks 3
caban@@ 3
cai@@ 3
cano@@ 3
capu@@ 3
care@@ 3
casi@@ 3
caval@@ 3
cheval@@ 3
cier@@ 3
cil 3
climb@@ 3
colum@@ 3
comb@@ 3
combin@@ 3
conc@@ 3
confér@@ 3
conne@@ 3
corn@@ 3
cornem@@ 3
cot@@ 3
coulo@@ 3
cow-@@ 3
creu@@ 3
cross@@ 3
cteurs 3
ctive 3
ctri@@ 3
cté 3
cuill@@ 3
cycle 3
cycles 3
danse@@ 3
discu@@ 3
door@@ 3
doss@@ 3
dures 3
décontract@@ 3
ee 3
ees 3
ef@@ 3
ei@@ 3
eld 3
eless 3
emmitou@@ 3
endant 3
entes 3
enthusi@@ 3
entr@@ 3
escri@@ 3
espagno@@ 3
esur@@ 3
eth@@ 3
euro@@ 3
extré@@ 3
feat@@ 3
fee@@ 3
fel@@ 3
fem@@ 3
ffe@@ 3
fit@@ 3
flan@@ 3
fleur@@ 3
focu@@ 3
foncti@@ 3
ful@@ 3
gages 3
gall@@ 3
gel 3
gement 3
ggage 3
gir@@ 3
gorge 3
graffit@@ 3
gras@@ 3
ha 3
habill@@ 3
habit@@ 3
harna@@ 3
hosp@@ 3
hut@@ 3
ica@@ 3
iler 3
indre 3
industri@@ 3
ino@@ 3
inté@@ 3
ite-@@ 3
ite@@ 3
itures 3
jour@@ 3
kic@@ 3
kly 3
kne@@ 3
kni@@ 3
labra@@ 3
laces 3
lad@@ 3
lants 3
leot@@ 3
lettes 3
loun@@ 3
matéri@@ 3
mb 3
mem@@ 3
meute 3
mex@@ 3
mexic@@ 3
mexica@@ 3
mock 3
mod@@ 3
moder@@ 3
moti@@ 3
mousta@@ 3
muscu@@ 3
ness 3
nin@@ 3
note@@ 3
nour@@ 3
nouv@@ 3
oce@@ 3
od@@ 3
oed 3
oit 3
ok@@ 3
onloo@@ 3
onnement 3
ounds 3
ouse 3
ouv@@ 3
pap@@ 3
passag@@ 3
ph 3
pho@@ 3
phon@@ 3
pian@@ 3
pier@@ 3
pilot@@ 3
pizz@@ 3
polici@@ 3
pony@@ 3
potat@@ 3
princi@@ 3
pump@@ 3
quarter@@ 3
quo@@ 3
ramass@@ 3
représen@@ 3
ret 3
river@@ 3
rol@@ 3
réce@@ 3
récipi@@ 3
récupé@@ 3
savou@@ 3
sch@@ 3
scop@@ 3
scream@@ 3
shin@@ 3
shion 3
shir@@ 3
shor@@ 3
sible 3
sil 3
spen@@ 3
sporti@@ 3
spot@@ 3
sques 3
ssures 3
stom@@ 3
stop@@ 3
strade 3
suspend@@ 3
swor@@ 3
sè@@ 3
tai@@ 3
tamb@@ 3
tatou@@ 3
tech@@ 3
tee-@@ 3
timate 3
track@@ 3
trum@@ 3
ttery 3
tting 3
tum@@ 3
téléphon@@ 3
térieur 3
unusu@@ 3
urba@@ 3
vacu@@ 3
vacuum@@ 3
vari@@ 3
velo@@ 3
veur 3
vin@@ 3
vra@@ 3
vrant 3
well-@@ 3
whe@@ 3
windo@@ 3
wrest@@ 3
zed 3
zen 3
zo@@ 3
à@@ 3
âteau 3
ès 3
écri@@ 3
éje@@ 3
équili@@ 3
éra@@ 3
érique 3
étre@@ 3
évent@@ 3
êtes 3
ï 3
œur 3
-skinned 2
7@@ 2
abr@@ 2
abri 2
ac 2
accor@@ 2
accordé@@ 2
accrou@@ 2
achè@@ 2
aids 2
aille 2
aling 2
allong@@ 2
alpin@@ 2
amer@@ 2
appel@@ 2
approa@@ 2
argen@@ 2
arrière-@@ 2
aspir@@ 2
asses 2
ath@@ 2
athlé@@ 2
attend@@ 2
até 2
balu@@ 2
bamb@@ 2
ban 2
bas-@@ 2
ben@@ 2
bies 2
blea@@ 2
bli@@ 2
blond-@@ 2
blou@@ 2
bone 2
bons 2
born 2
bott@@ 2
boî@@ 2
bridesm@@ 2
brun@@ 2
bulldo@@ 2
bystand@@ 2
bâti@@ 2
bés 2
camera@@ 2
cami@@ 2
canap@@ 2
ceaux 2
cers 2
challen@@ 2
chap@@ 2
chauss@@ 2
check@@ 2
chets 2
chin@@ 2
chu 2
chur@@ 2
citiz@@ 2
close@@ 2
colo@@ 2
compét@@ 2
corpul@@ 2
coura@@ 2
cow@@ 2
coéqui@@ 2
ctures 2
cue 2
cuis@@ 2
cuisin@@ 2
demo@@ 2
demois@@ 2
den 2
deo 2
deser@@ 2
desig@@ 2
destin@@ 2
deuse 2
dinosau@@ 2
dio 2
donal@@ 2
dread@@ 2
dép@@ 2
edly 2
enca@@ 2
ench 2
enseig@@ 2
entour@@ 2
entra@@ 2
entran@@ 2
entraîne@@ 2
enté 2
envelo@@ 2
envir@@ 2
envo@@ 2
esc@@ 2
espag@@ 2
essenti@@ 2
ethni@@ 2
even@@ 2
ever@@ 2
exerc@@ 2
fantaisi@@ 2
fare 2
ffect@@ 2
fini@@ 2
fleuri@@ 2
flow@@ 2
foul@@ 2
fé@@ 2
gen 2
gency 2
ggy 2
gies 2
gile 2
gran@@ 2
gul@@ 2
hard@@ 2
harmon@@ 2
harve@@ 2
heu@@ 2
héli@@ 2
igeant 2
ign 2
illard 2
illy 2
immen@@ 2
impermé@@ 2
impos@@ 2
incen@@ 2
infir@@ 2
inged 2
ino 2
inspec@@ 2
intégra@@ 2
invol@@ 2
iteau 2
iture 2
ivent 2
jama 2
jardin@@ 2
kets 2
laborat@@ 2
lace 2
lampada@@ 2
liqui@@ 2
locks 2
loy@@ 2
may@@ 2
mel@@ 2
mic@@ 2
mité 2
moby@@ 2
mono@@ 2
monticu@@ 2
mountain@@ 2
mun@@ 2
munici@@ 2
musici@@ 2
mél@@ 2
métal@@ 2
nau@@ 2
naval 2
neigh@@ 2
ners 2
nis 2
niture 2
nouveau-@@ 2
obsc@@ 2
olympi@@ 2
onne@@ 2
onneuse 2
oph@@ 2
opér@@ 2
pac@@ 2
pag@@ 2
pal 2
pane 2
pare 2
parta@@ 2
partment 2
patter@@ 2
peaux 2
pel 2
pette 2
pha@@ 2
phal@@ 2
pics 2
pique-@@ 2
poit@@ 2
pout@@ 2
pret@@ 2
propri@@ 2
pupit@@ 2
puzz@@ 2
quelle 2
rale 2
reau 2
remu@@ 2
repair@@ 2
respe@@ 2
ressembl@@ 2
restau@@ 2
reuse 2
rib@@ 2
ried 2
riers 2
rine 2
rines 2
roof@@ 2
roug@@ 2
ruiss@@ 2
rure 2
ry-@@ 2
ry@@ 2
réfl@@ 2
régi@@ 2
sation 2
sauci@@ 2
scaffol@@ 2
scho@@ 2
sely 2
senti@@ 2
sham@@ 2
shaw@@ 2
shou@@ 2
shoul@@ 2
situ@@ 2
skul@@ 2
slim 2
sols 2
sombrer@@ 2
soon@@ 2
spectat@@ 2
spider@@ 2
spin@@ 2
spr@@ 2
stand@@ 2
stem 2
stern 2
stron@@ 2
stuff@@ 2
stun@@ 2
sul@@ 2
susp@@ 2
séri@@ 2
table@@ 2
tach@@ 2
tation 2
teet@@ 2
ticu@@ 2
tien 2
tin 2
toa@@ 2
trava@@ 2
traver@@ 2
tren@@ 2
tron@@ 2
tré@@ 2
twe@@ 2
uit 2
ules 2
ument 2
uniform@@ 2
univer@@ 2
urgi@@ 2
veral 2
video@@ 2
vier 2
vét@@ 2
wai@@ 2
wash@@ 2
whi@@ 2
wine@@ 2
xing 2
zzy 2
échaf@@ 2
écoss@@ 2
élo@@ 2
épai@@ 2
épar@@ 2
équip@@ 2
établ@@ 2
étir@@ 2
êtent 2
ël 2
œ@@ 2
$ 1
&apos;@@ 1
-pom 1
/ 1
= 1
abrup@@ 1
accordi@@ 1
acked 1
ader 1
adolesc@@ 1
ador@@ 1
adverti@@ 1
afro-@@ 1
after@@ 1
again@@ 1
ain@@ 1
aiss@@ 1
alle@@ 1
américa@@ 1
anni@@ 1
anniver@@ 1
apr@@ 1
après-@@ 1
ata 1
athle@@ 1
ato@@ 1
ats-unis 1
attemp@@ 1
attle 1
automob@@ 1
bad@@ 1
bask@@ 1
bbing 1
bed@@ 1
bene@@ 1
bers 1
bik@@ 1
bikin@@ 1
binocu@@ 1
bub@@ 1
busin@@ 1
butter@@ 1
caric@@ 1
cated 1
cathe@@ 1
ceau 1
cell@@ 1
chaine 1
chalk@@ 1
chall@@ 1
chant@@ 1
cheur 1
chir@@ 1
chocola@@ 1
chorégraph@@ 1
chou@@ 1
cial 1
cigar@@ 1
cils 1
cis@@ 1
cket 1
clou@@ 1
clô@@ 1
cole 1
collè@@ 1
compl@@ 1
concre@@ 1
congre@@ 1
countr@@ 1
coure@@ 1
court@@ 1
craf@@ 1
ctif 1
cup@@ 1
custom@@ 1
cycli@@ 1
deu@@ 1
diff@@ 1
differ@@ 1
docum@@ 1
dow 1
dump@@ 1
dwalk 1
dying 1
déchir@@ 1
décontra@@ 1
effectu@@ 1
eg@@ 1
elier 1
ement@@ 1
ength 1
ening 1
ense@@ 1
enseign@@ 1
enth@@ 1
ere 1
essay@@ 1
establi@@ 1
etting 1
favor@@ 1
ffre 1
fighters 1
fique 1
flops 1
flou@@ 1
footbal@@ 1
footed 1
from@@ 1
fréqu@@ 1
garni 1
garç@@ 1
gent@@ 1
get@@ 1
ghter 1
gratu@@ 1
grave@@ 1
gray@@ 1
guitar@@ 1
gun@@ 1
haut@@ 1
hawai@@ 1
heav@@ 1
hockey@@ 1
horiz@@ 1
hot@@ 1
hula@@ 1
humi@@ 1
hydr@@ 1
ices 1
igh@@ 1
inage 1
individu@@ 1
indu@@ 1
inju@@ 1
ish@@ 1
ising 1
isir 1
isés 1
iting 1
itude 1
jamas 1
jeun@@ 1
jours 1
ket 1
kio@@ 1
kis 1
label@@ 1
lared 1
lau@@ 1
laugh@@ 1
lif@@ 1
lév@@ 1
mainten@@ 1
marm@@ 1
mering 1
midd@@ 1
mier 1
miers 1
mig@@ 1
milit@@ 1
mill 1
mières 1
monie 1
monocyc@@ 1
mont@@ 1
moy@@ 1
moyen-@@ 1
muse@@ 1
new@@ 1
nex@@ 1
ni 1
numer@@ 1
océ@@ 1
oking 1
onnel 1
onnet 1
ory 1
outf@@ 1
outi@@ 1
panse 1
paress@@ 1
pe-@@ 1
peig@@ 1
pelu@@ 1
perc@@ 1
perform@@ 1
performan@@ 1
peupl@@ 1
pir@@ 1
pist@@ 1
pital 1
plasti@@ 1
plate@@ 1
plying 1
power@@ 1
practi@@ 1
profess@@ 1
progre@@ 1
ptions 1
publ@@ 1
pyra@@ 1
raf@@ 1
rayed 1
red@@ 1
ree 1
refl@@ 1
remet@@ 1
repa@@ 1
resque 1
ricksha@@ 1
riture 1
robo@@ 1
roll@@ 1
rying 1
réuni@@ 1
saire 1
salo@@ 1
sans-@@ 1
sauve@@ 1
sax@@ 1
scen@@ 1
scopes 1
scr@@ 1
scriptions 1
secou@@ 1
sembl@@ 1
sents 1
servi@@ 1
shepher@@ 1
shing@@ 1
shirt@@ 1
shment 1
shoot@@ 1
shop@@ 1
signal@@ 1
skate@@ 1
sly 1
smil@@ 1
snea@@ 1
soc@@ 1
social@@ 1
sole@@ 1
souri@@ 1
souti@@ 1
spec@@ 1
spee@@ 1
spra@@ 1
spé@@ 1
squ&apos; 1
squat@@ 1
sque@@ 1
squee@@ 1
ssi 1
stil@@ 1
stin@@ 1
stoo@@ 1
suiv@@ 1
suppli@@ 1
surg@@ 1
surgi@@ 1
suring 1
swee@@ 1
sément 1
teau 1
teen@@ 1
tele@@ 1
tens 1
tho@@ 1
thum@@ 1
toire 1
tooth@@ 1
tory 1
tram@@ 1
travail@@ 1
tread@@ 1
tree-@@ 1
tritus 1
tropi@@ 1
tux@@ 1
tuy@@ 1
tâ@@ 1
tère 1
una 1
unicyc@@ 1
unis 1
urne 1
vau@@ 1
veux 1
volle@@ 1
végét@@ 1
vél@@ 1
vététi@@ 1
wel 1
wheel@@ 1
wheelbar@@ 1
with@@ 1
xim@@ 1
xylo@@ 1
yar@@ 1
yc@@ 1
yh@@ 1
yon 1
yway 1
za 1
° 1
âteaux 1
écha@@ 1
éco@@ 1
électron@@ 1
épon@@ 1
éro 1
éto@@ 1
êt 1
ïs 1
ñ@@ 1
û 1
madeupword0000 0
madeupword0001 0
madeupword0002 0
madeupword0003 0
madeupword0004 0
madeupword0005 0
madeupword0006 0
